{
  "added_tokens": [
    {
      "content": "<pad>",
      "id": 0,
      "special": true
    },
    {
      "content": "<unk>",
      "id": 1,
      "special": true
    },
    {
      "content": "<bos>",
      "id": 2,
      "special": true
    },
    {
      "content": "<eos>",
      "id": 3,
      "special": true
    }
  ],
  "browser_admission": false,
  "browser_inference_ready": false,
  "browser_runtime_ready": true,
  "candidate_source": "r27a12_new_96m",
  "exact_runtime_tokenizer": true,
  "merges": [
    [
      "ä",
      "¸"
    ],
    [
      "Ġ",
      "t"
    ],
    [
      "ã",
      "Ģ"
    ],
    [
      "Ġ",
      "a"
    ],
    [
      "i",
      "n"
    ],
    [
      "h",
      "e"
    ],
    [
      "ç",
      "ļ"
    ],
    [
      "çļ",
      "Ħ"
    ],
    [
      "r",
      "e"
    ],
    [
      "o",
      "n"
    ],
    [
      "e",
      "r"
    ],
    [
      "ä",
      "º"
    ],
    [
      "æ",
      "ľ"
    ],
    [
      "ãĢ",
      "Ĥ"
    ],
    [
      "Ġ",
      "s"
    ],
    [
      "Ġt",
      "he"
    ],
    [
      "e",
      "n"
    ],
    [
      "a",
      "t"
    ],
    [
      "å",
      "ħ"
    ],
    [
      "å",
      "ı"
    ],
    [
      "Ġ",
      "c"
    ],
    [
      "o",
      "r"
    ],
    [
      "å",
      "ľ"
    ],
    [
      "e",
      "s"
    ],
    [
      "ä",
      "»"
    ],
    [
      "a",
      "n"
    ],
    [
      "Ġ",
      "p"
    ],
    [
      "Ġ",
      "w"
    ],
    [
      "å",
      "¤"
    ],
    [
      "Ġ",
      "o"
    ],
    [
      "Ġ",
      "f"
    ],
    [
      "a",
      "r"
    ],
    [
      "i",
      "t"
    ],
    [
      "å",
      "¹"
    ],
    [
      "i",
      "s"
    ],
    [
      "å",
      "®"
    ],
    [
      "a",
      "l"
    ],
    [
      "n",
      "d"
    ],
    [
      "Ġ",
      "b"
    ],
    [
      "æ",
      "ĸ"
    ],
    [
      "in",
      "g"
    ],
    [
      "â",
      "Ģ"
    ],
    [
      "e",
      "d"
    ],
    [
      "Ġ",
      "d"
    ],
    [
      "ç",
      "Ķ"
    ],
    [
      "r",
      "o"
    ],
    [
      "æ",
      "ĺ"
    ],
    [
      "å",
      "Ī"
    ],
    [
      "Ġ",
      "m"
    ],
    [
      "ä",
      "½"
    ],
    [
      "Ġ",
      "in"
    ],
    [
      "Ġt",
      "o"
    ],
    [
      "i",
      "c"
    ],
    [
      "å",
      "Ĳ"
    ],
    [
      "æ",
      "Ī"
    ],
    [
      "å¹",
      "´"
    ],
    [
      "å",
      "°"
    ],
    [
      "Ġo",
      "f"
    ],
    [
      "å",
      "Ľ"
    ],
    [
      "Ġa",
      "nd"
    ],
    [
      "o",
      "u"
    ],
    [
      "a",
      "s"
    ],
    [
      "Ġ",
      "l"
    ],
    [
      "ãĢ",
      "ģ"
    ],
    [
      "ä",
      "¹"
    ],
    [
      "å",
      "Ń"
    ],
    [
      "å",
      "į"
    ],
    [
      "i",
      "on"
    ],
    [
      "ä¸",
      "Ģ"
    ],
    [
      "æĺ",
      "¯"
    ],
    [
      "å",
      "¾"
    ],
    [
      "Ġ",
      "h"
    ],
    [
      "æ",
      "Ĺ"
    ],
    [
      "i",
      "l"
    ],
    [
      "åľ",
      "¨"
    ],
    [
      "é",
      "Ģ"
    ],
    [
      "en",
      "t"
    ],
    [
      "å",
      "Ĭ"
    ],
    [
      "Ġt",
      "h"
    ],
    [
      "e",
      "l"
    ],
    [
      "å",
      "¸"
    ],
    [
      "è",
      "¿"
    ],
    [
      "ä¸",
      "Ń"
    ],
    [
      "äº",
      "º"
    ],
    [
      "æľ",
      "ī"
    ],
    [
      "o",
      "m"
    ],
    [
      "è",
      "¯"
    ],
    [
      "s",
      "t"
    ],
    [
      "Ġ",
      "re"
    ],
    [
      "ç",
      "ī"
    ],
    [
      "e",
      "t"
    ],
    [
      "ä¸",
      "į"
    ],
    [
      "Ġ",
      "n"
    ],
    [
      "Ġ",
      "g"
    ],
    [
      "é",
      "ĩ"
    ],
    [
      "c",
      "t"
    ],
    [
      "æ",
      "Ń"
    ],
    [
      "l",
      "e"
    ],
    [
      "æ",
      "ī"
    ],
    [
      "Ġ",
      "T"
    ],
    [
      "è",
      "Ģ"
    ],
    [
      "å¤",
      "§"
    ],
    [
      "å",
      "·"
    ],
    [
      "é",
      "ģ"
    ],
    [
      "Ġ",
      "e"
    ],
    [
      "i",
      "d"
    ],
    [
      "å",
      "º"
    ],
    [
      "å",
      "Ĵ"
    ],
    [
      "Ġ",
      "1"
    ],
    [
      "è",
      "¡"
    ],
    [
      "å",
      "Į"
    ],
    [
      "æ",
      "Ķ"
    ],
    [
      "Ġ",
      "A"
    ],
    [
      "åĴ",
      "Į"
    ],
    [
      "è",
      "®"
    ],
    [
      "æ",
      "ķ"
    ],
    [
      "ä",
      "¼"
    ],
    [
      "ç",
      "»"
    ],
    [
      "v",
      "e"
    ],
    [
      "Ġ",
      "y"
    ],
    [
      "Ġ",
      "S"
    ],
    [
      "å",
      "ĩ"
    ],
    [
      "Ġ",
      "I"
    ],
    [
      "ä»",
      "¥"
    ],
    [
      "Ġ",
      "u"
    ],
    [
      "æ",
      "Ŀ"
    ],
    [
      "å",
      "¼"
    ],
    [
      "å",
      "¥"
    ],
    [
      "åĽ",
      "½"
    ],
    [
      "a",
      "d"
    ],
    [
      "æ",
      "°"
    ],
    [
      "Ġ",
      "C"
    ],
    [
      "é",
      "ĥ"
    ],
    [
      "è",
      "ĩ"
    ],
    [
      "u",
      "t"
    ],
    [
      "ç",
      "Ľ"
    ],
    [
      "Ġ",
      "is"
    ],
    [
      "o",
      "t"
    ],
    [
      "æ",
      "³"
    ],
    [
      "u",
      "r"
    ],
    [
      "é",
      "Ļ"
    ],
    [
      "i",
      "m"
    ],
    [
      "è",
      "¦"
    ],
    [
      "å",
      "¯"
    ],
    [
      "Ġf",
      "or"
    ],
    [
      "Ġb",
      "e"
    ],
    [
      "o",
      "l"
    ],
    [
      "å",
      "±"
    ],
    [
      "er",
      "s"
    ],
    [
      "äº",
      "Ĩ"
    ],
    [
      "åľ",
      "ĭ"
    ],
    [
      "o",
      "s"
    ],
    [
      "å",
      "Ĩ"
    ],
    [
      "2",
      "0"
    ],
    [
      "ç",
      "Ĥ"
    ],
    [
      "Ġd",
      "e"
    ],
    [
      "a",
      "m"
    ],
    [
      "l",
      "y"
    ],
    [
      "ç",
      "Ń"
    ],
    [
      "a",
      "c"
    ],
    [
      "o",
      "w"
    ],
    [
      "å",
      "Ģ"
    ],
    [
      "æ",
      "²"
    ],
    [
      "çĶ",
      "¨"
    ],
    [
      "ä",
      "¾"
    ],
    [
      "Ġ",
      "on"
    ],
    [
      "é",
      "Ľ"
    ],
    [
      "at",
      "ion"
    ],
    [
      "Ġp",
      "ro"
    ],
    [
      "é",
      "Ĺ"
    ],
    [
      "æ",
      "Ģ"
    ],
    [
      "a",
      "y"
    ],
    [
      "ç",
      "§"
    ],
    [
      "i",
      "g"
    ],
    [
      "è",
      "ĥ"
    ],
    [
      "ç",
      "İ"
    ],
    [
      "çĶ",
      "Ł"
    ],
    [
      "æ",
      "Ļ"
    ],
    [
      "æĹ",
      "¥"
    ],
    [
      "ç",
      "¾"
    ],
    [
      "Ġth",
      "at"
    ],
    [
      "i",
      "r"
    ],
    [
      "å",
      "ĵ"
    ],
    [
      "å",
      "ī"
    ],
    [
      "u",
      "l"
    ],
    [
      "æľ",
      "Ī"
    ],
    [
      "Ġ",
      "M"
    ],
    [
      "åĩ",
      "º"
    ],
    [
      "æĪ",
      "Ĳ"
    ],
    [
      "ä¸",
      "Ĭ"
    ],
    [
      "å",
      "½"
    ],
    [
      "æ",
      "Ľ"
    ],
    [
      "é",
      "Ŀ"
    ],
    [
      "æ",
      "ł"
    ],
    [
      "å®",
      "¶"
    ],
    [
      "è",
      "§"
    ],
    [
      "ä",
      "¿"
    ],
    [
      "c",
      "h"
    ],
    [
      "æ",
      "İ"
    ],
    [
      "ä¸",
      "º"
    ],
    [
      "å",
      "¿"
    ],
    [
      "æ",
      "ĭ"
    ],
    [
      "Ġs",
      "t"
    ],
    [
      "å",
      "İ"
    ],
    [
      "Ġ",
      "P"
    ],
    [
      "è",
      "¨"
    ],
    [
      "è",
      "Ī"
    ],
    [
      "âĢ",
      "ľ"
    ],
    [
      "æ",
      "µ"
    ],
    [
      "çĤ",
      "º"
    ],
    [
      "âĢ",
      "Ŀ"
    ],
    [
      "å",
      "Ł"
    ],
    [
      "åľ",
      "°"
    ],
    [
      "åı",
      "¯"
    ],
    [
      "ç",
      "«"
    ],
    [
      "ç",
      "Ĳ"
    ],
    [
      "Ġ",
      "B"
    ],
    [
      "æ",
      "ŀ"
    ],
    [
      "ç",
      "ķ"
    ],
    [
      "v",
      "er"
    ],
    [
      "æ",
      "Ĭ"
    ],
    [
      "Ġc",
      "on"
    ],
    [
      "æ",
      "Į"
    ],
    [
      "å",
      "ĳ"
    ],
    [
      "c",
      "e"
    ],
    [
      "q",
      "u"
    ],
    [
      "ç",
      "´"
    ],
    [
      "é",
      "«"
    ],
    [
      "é",
      "¢"
    ],
    [
      "es",
      "t"
    ],
    [
      "s",
      "e"
    ],
    [
      "ç",
      "Ļ"
    ],
    [
      "it",
      "h"
    ],
    [
      "o",
      "d"
    ],
    [
      "ä¹",
      "ĭ"
    ],
    [
      "åĪ",
      "°"
    ],
    [
      "æ",
      "¯"
    ],
    [
      "Ġ",
      "he"
    ],
    [
      "Ġ",
      "it"
    ],
    [
      "èĥ",
      "½"
    ],
    [
      "å¤",
      "ļ"
    ],
    [
      "ç",
      "¨"
    ],
    [
      "il",
      "l"
    ],
    [
      "å",
      "¦"
    ],
    [
      "âĢ",
      "Ļ"
    ],
    [
      "r",
      "a"
    ],
    [
      "ä½",
      "ľ"
    ],
    [
      "Ġ",
      "F"
    ],
    [
      "Ġa",
      "l"
    ],
    [
      "Ġ1",
      "9"
    ],
    [
      "æ",
      "´"
    ],
    [
      "ä»",
      "ĸ"
    ],
    [
      "ĠT",
      "he"
    ],
    [
      "1",
      "9"
    ],
    [
      "ä¸",
      "ĸ"
    ],
    [
      "è¦",
      "ģ"
    ],
    [
      "Ġy",
      "ou"
    ],
    [
      "an",
      "t"
    ],
    [
      "å",
      "ĭ"
    ],
    [
      "Ġ",
      "W"
    ],
    [
      "Ġa",
      "re"
    ],
    [
      "æ³",
      "ķ"
    ],
    [
      "Ġw",
      "ith"
    ],
    [
      "ç",
      "ľ"
    ],
    [
      "i",
      "f"
    ],
    [
      "Ġa",
      "s"
    ],
    [
      "ä¸",
      "»"
    ],
    [
      "Ġa",
      "n"
    ],
    [
      "Ġ",
      "Ð"
    ],
    [
      "è¡",
      "Į"
    ],
    [
      "ç",
      "º"
    ],
    [
      "æ",
      "į"
    ],
    [
      "è",
      "µ"
    ],
    [
      "ä¸",
      "ª"
    ],
    [
      "m",
      "ent"
    ],
    [
      "Ġc",
      "om"
    ],
    [
      "è",
      "ª"
    ],
    [
      "æľ",
      "¬"
    ],
    [
      "ç",
      "¬"
    ],
    [
      "æĸ",
      "ĩ"
    ],
    [
      "å",
      "»"
    ],
    [
      "åŃ",
      "Ĳ"
    ],
    [
      "æ",
      "¸"
    ],
    [
      "æĸ",
      "¯"
    ],
    [
      "é",
      "ĸ"
    ],
    [
      "Ġ",
      "D"
    ],
    [
      "a",
      "b"
    ],
    [
      "æ",
      "Ħ"
    ],
    [
      "æĪ",
      "ĳ"
    ],
    [
      "i",
      "v"
    ],
    [
      "an",
      "d"
    ],
    [
      "èĩ",
      "ª"
    ],
    [
      "åħ",
      "¶"
    ],
    [
      "æ",
      "¬"
    ],
    [
      "Ġw",
      "h"
    ],
    [
      "âĢ",
      "Ķ"
    ],
    [
      "æĸ",
      "¹"
    ],
    [
      "é",
      "¦"
    ],
    [
      "Ġ",
      "("
    ],
    [
      "åĪ",
      "Ĩ"
    ],
    [
      "Ġ",
      "H"
    ],
    [
      "Â",
      "·"
    ],
    [
      "èĢ",
      "Į"
    ],
    [
      "o",
      "re"
    ],
    [
      "or",
      "t"
    ],
    [
      "åŃ",
      "¦"
    ],
    [
      "at",
      "e"
    ],
    [
      "éĥ",
      "¨"
    ],
    [
      "Ġs",
      "u"
    ],
    [
      "ç",
      "µ"
    ],
    [
      "é",
      "Ĥ"
    ],
    [
      "æ",
      "±"
    ],
    [
      "è",
      "¶"
    ],
    [
      "é",
      "ĺ"
    ],
    [
      "he",
      "r"
    ],
    [
      "g",
      "e"
    ],
    [
      "n",
      "t"
    ],
    [
      "Ġ",
      "v"
    ],
    [
      "o",
      "p"
    ],
    [
      "æ",
      "ı"
    ],
    [
      "Ð",
      "¾"
    ],
    [
      "ä¸",
      "ĭ"
    ],
    [
      "æ",
      "ĥ"
    ],
    [
      "ç",
      "Ħ"
    ],
    [
      "Ġ",
      "E"
    ],
    [
      "Ġ",
      "R"
    ],
    [
      "ä¹",
      "Ł"
    ],
    [
      "Ġs",
      "e"
    ],
    [
      "çī",
      "©"
    ],
    [
      "åĽ",
      "ŀ"
    ],
    [
      "is",
      "t"
    ],
    [
      "Ġw",
      "e"
    ],
    [
      "u",
      "s"
    ],
    [
      "ç",
      "Ī"
    ],
    [
      "å¦",
      "Ĥ"
    ],
    [
      "åĲ",
      "Į"
    ],
    [
      "è",
      "ģ"
    ],
    [
      ".",
      "."
    ],
    [
      "Ġ",
      "en"
    ],
    [
      "æī",
      "Ģ"
    ],
    [
      "è",
      "¾"
    ],
    [
      "è¿",
      "Ļ"
    ],
    [
      "re",
      "s"
    ],
    [
      "è",
      "¢"
    ],
    [
      "Ġ",
      "-"
    ],
    [
      "é",
      "ļ"
    ],
    [
      "è",
      "´"
    ],
    [
      "p",
      "p"
    ],
    [
      "ç¬",
      "¬"
    ],
    [
      "æį",
      "®"
    ],
    [
      "åħ",
      "¬"
    ],
    [
      "çĲ",
      "Ĩ"
    ],
    [
      "l",
      "d"
    ],
    [
      "å®",
      "ļ"
    ],
    [
      "Ġ",
      "20"
    ],
    [
      "é",
      "¡"
    ],
    [
      "ç¾",
      "İ"
    ],
    [
      "äº",
      "İ"
    ],
    [
      "i",
      "es"
    ],
    [
      "Ġe",
      "x"
    ],
    [
      "d",
      "u"
    ],
    [
      "k",
      "e"
    ],
    [
      "Ġh",
      "a"
    ],
    [
      "æĻ",
      "Ĥ"
    ],
    [
      "Ġ",
      "or"
    ],
    [
      "åī",
      "į"
    ],
    [
      "es",
      "s"
    ],
    [
      "å",
      "§"
    ],
    [
      "ãĢ",
      "ĭ"
    ],
    [
      "ç",
      "©"
    ],
    [
      "ãĢ",
      "Ĭ"
    ],
    [
      "ç",
      "½"
    ],
    [
      "Ġ",
      "N"
    ],
    [
      "æ",
      "¼"
    ],
    [
      "åŃ",
      "¸"
    ],
    [
      "æľ",
      "ĥ"
    ],
    [
      "æ°",
      "ĳ"
    ],
    [
      "è",
      "ĭ"
    ],
    [
      "åı",
      "Ĭ"
    ],
    [
      "æľ",
      "Ģ"
    ],
    [
      "o",
      "c"
    ],
    [
      "è",
      "¥"
    ],
    [
      "æ",
      "¨"
    ],
    [
      "Ġn",
      "e"
    ],
    [
      "é",
      "ķ"
    ],
    [
      "it",
      "y"
    ],
    [
      "e",
      "ct"
    ],
    [
      "Ġ",
      "L"
    ],
    [
      "u",
      "n"
    ],
    [
      "e",
      "m"
    ],
    [
      "Ð",
      "µ"
    ],
    [
      "Ġ",
      "G"
    ],
    [
      "0",
      "0"
    ],
    [
      "ç",
      "¶"
    ],
    [
      "æĸ",
      "°"
    ],
    [
      "æĢ",
      "§"
    ],
    [
      "è¢",
      "«"
    ],
    [
      "ar",
      "m"
    ],
    [
      "æĹ",
      "¶"
    ],
    [
      "è¯",
      "ģ"
    ],
    [
      "é",
      "ł"
    ],
    [
      "é«",
      "ĺ"
    ],
    [
      "æĶ",
      "¿"
    ],
    [
      "Ġ",
      "r"
    ],
    [
      "ä¼",
      "ļ"
    ],
    [
      "ro",
      "m"
    ],
    [
      "çī",
      "¹"
    ],
    [
      "Ġa",
      "t"
    ],
    [
      "u",
      "m"
    ],
    [
      "ar",
      "t"
    ],
    [
      "è¥",
      "¿"
    ],
    [
      "å°",
      "±"
    ],
    [
      "é",
      "»"
    ],
    [
      "èĢ",
      "ħ"
    ],
    [
      "æĪ",
      "ĸ"
    ],
    [
      "éĥ",
      "½"
    ],
    [
      "ç",
      "Ł"
    ],
    [
      "çŃ",
      "ī"
    ],
    [
      "éĩ",
      "Į"
    ],
    [
      "åĽ",
      "ł"
    ],
    [
      "h",
      "t"
    ],
    [
      "è",
      "·"
    ],
    [
      "å¤",
      "©"
    ],
    [
      "äº",
      "ĭ"
    ],
    [
      "ä»",
      "£"
    ],
    [
      "r",
      "i"
    ],
    [
      "æĸ",
      "¼"
    ],
    [
      "u",
      "re"
    ],
    [
      "ä»",
      "»"
    ],
    [
      "åĢ",
      "ĭ"
    ],
    [
      "åĲ",
      "Ī"
    ],
    [
      "å¾",
      "Ĺ"
    ],
    [
      "Ġu",
      "n"
    ],
    [
      "çŃ",
      "Ķ"
    ],
    [
      "å",
      "ģ"
    ],
    [
      "ãĢ",
      "Į"
    ],
    [
      "ãĢ",
      "į"
    ],
    [
      "çİ",
      "ĭ"
    ],
    [
      "è",
      "£"
    ],
    [
      "éĢ",
      "Ļ"
    ],
    [
      "t",
      "er"
    ],
    [
      "å¸",
      "Ĥ"
    ],
    [
      "éĹ",
      "®"
    ],
    [
      "åĬ",
      "ł"
    ],
    [
      "è",
      "»"
    ],
    [
      "ç",
      "¤"
    ],
    [
      "åĮ",
      "ĸ"
    ],
    [
      "e",
      "ar"
    ],
    [
      "Ġf",
      "rom"
    ],
    [
      "é¢",
      "ĺ"
    ],
    [
      "å¾",
      "Į"
    ],
    [
      "åĲ",
      "į"
    ],
    [
      "Ġha",
      "ve"
    ],
    [
      "ç",
      "¥"
    ],
    [
      "ä½",
      "¿"
    ],
    [
      "Ġw",
      "as"
    ],
    [
      "Ġ",
      "qu"
    ],
    [
      "Ñ",
      "Ĥ"
    ],
    [
      "t",
      "h"
    ],
    [
      "i",
      "ve"
    ],
    [
      "åĽŀ",
      "çŃĶ"
    ],
    [
      "åĪ",
      "©"
    ],
    [
      "ul",
      "t"
    ],
    [
      "è",
      "³"
    ],
    [
      "å°",
      "ı"
    ],
    [
      "è¯ģ",
      "æį®"
    ],
    [
      "a",
      "in"
    ],
    [
      "Ġ",
      "U"
    ],
    [
      "r",
      "ic"
    ],
    [
      "åħ",
      "¨"
    ],
    [
      "è",
      "ī"
    ],
    [
      "å¤",
      "ĸ"
    ],
    [
      "åĲ",
      "İ"
    ],
    [
      "Ġ",
      "O"
    ],
    [
      "éĿ",
      "¢"
    ],
    [
      "ç",
      "ı"
    ],
    [
      "Ð",
      "°"
    ],
    [
      "ç«",
      "ĭ"
    ],
    [
      "ä¾",
      "Ĩ"
    ],
    [
      "ä¸",
      "ī"
    ],
    [
      "Ġp",
      "l"
    ],
    [
      "çĶ",
      "±"
    ],
    [
      "å·",
      "¥"
    ],
    [
      "Ð",
      "¸"
    ],
    [
      "å",
      "£"
    ],
    [
      "å¾",
      "·"
    ],
    [
      "Ġl",
      "a"
    ],
    [
      "Ġb",
      "y"
    ],
    [
      "æı",
      "Ĳ"
    ],
    [
      "ç",
      "³"
    ],
    [
      "ç",
      "±"
    ],
    [
      "o",
      "od"
    ],
    [
      "åĬ",
      "Ľ"
    ],
    [
      "ä½",
      "į"
    ],
    [
      "é",
      "Ł"
    ],
    [
      "çĽ",
      "¸"
    ],
    [
      "è",
      "©"
    ],
    [
      "èĪ",
      "ĩ"
    ],
    [
      "æ",
      "ĵ"
    ],
    [
      "æŃ",
      "¤"
    ],
    [
      "c",
      "i"
    ],
    [
      "è",
      "Ń"
    ],
    [
      "çĦ",
      "¶"
    ],
    [
      "éĹ®",
      "é¢ĺ"
    ],
    [
      "è",
      "²"
    ],
    [
      "ç",
      "®"
    ],
    [
      "åº",
      "¦"
    ],
    [
      "æ",
      "Ł"
    ],
    [
      "ar",
      "d"
    ],
    [
      "å¯",
      "¹"
    ],
    [
      "è",
      "½"
    ],
    [
      "æĺ",
      "İ"
    ],
    [
      "u",
      "d"
    ],
    [
      "è¡",
      "¨"
    ],
    [
      "æķ",
      "Ļ"
    ],
    [
      "æĽ",
      "´"
    ],
    [
      "åı",
      "ĳ"
    ],
    [
      "ro",
      "u"
    ],
    [
      "æŀ",
      "ľ"
    ],
    [
      "ä½",
      "Ĩ"
    ],
    [
      "Ġc",
      "an"
    ],
    [
      "al",
      "l"
    ],
    [
      "éĢ",
      "ļ"
    ],
    [
      "Ġs",
      "a"
    ],
    [
      "åĮ",
      "Ĺ"
    ],
    [
      "ç",
      "ģ"
    ],
    [
      "åį",
      "Ĺ"
    ],
    [
      "å»",
      "º"
    ],
    [
      "çĻ",
      "¼"
    ],
    [
      "éĩ",
      "į"
    ],
    [
      "åħ",
      "ĭ"
    ],
    [
      "è",
      "Ĥ"
    ],
    [
      "äº",
      "Į"
    ],
    [
      "å",
      "ķ"
    ],
    [
      "Ġ",
      "âĢľ"
    ],
    [
      "åħ",
      "¥"
    ],
    [
      "Ġth",
      "is"
    ],
    [
      "Ġf",
      "arm"
    ],
    [
      "æ",
      "ģ"
    ],
    [
      "o",
      "st"
    ],
    [
      "æµ",
      "·"
    ],
    [
      "Ġn",
      "ot"
    ],
    [
      "Ġc",
      "h"
    ],
    [
      "ou",
      "ld"
    ],
    [
      "'",
      "s"
    ],
    [
      "åĵ",
      "¡"
    ],
    [
      "æĿ",
      "¥"
    ],
    [
      "u",
      "st"
    ],
    [
      "æľ",
      "Ł"
    ],
    [
      "å",
      "ł"
    ],
    [
      "åŁ",
      "º"
    ],
    [
      "å",
      "¢"
    ],
    [
      "å",
      "Ŀ"
    ],
    [
      "æĮ",
      "ģ"
    ],
    [
      "åį",
      "ģ"
    ],
    [
      "å¸",
      "¸"
    ],
    [
      "ou",
      "t"
    ],
    [
      "o",
      "g"
    ],
    [
      "Ġs",
      "h"
    ],
    [
      "Ġh",
      "as"
    ],
    [
      "è",
      "ĳ"
    ],
    [
      "å¼",
      "ı"
    ],
    [
      "é",
      "£"
    ],
    [
      "Ġ",
      "J"
    ],
    [
      "å¥",
      "³"
    ],
    [
      "Ġa",
      "b"
    ],
    [
      "åı¯",
      "ä»¥"
    ],
    [
      "å¿",
      "ĥ"
    ],
    [
      "om",
      "e"
    ],
    [
      "al",
      "ly"
    ],
    [
      "æ",
      "¥"
    ],
    [
      "i",
      "a"
    ],
    [
      "as",
      "t"
    ],
    [
      "i",
      "z"
    ],
    [
      "Ġ",
      "\""
    ],
    [
      "p",
      "l"
    ],
    [
      "Ġw",
      "or"
    ],
    [
      "Ġw",
      "ill"
    ],
    [
      "å°",
      "į"
    ],
    [
      "el",
      "l"
    ],
    [
      "å",
      "ĸ"
    ],
    [
      "åĮ",
      "º"
    ],
    [
      "æ",
      "º"
    ],
    [
      "e",
      "re"
    ],
    [
      "è",
      "Ĳ"
    ],
    [
      "ig",
      "ht"
    ],
    [
      "r",
      "y"
    ],
    [
      "éģ",
      "ĵ"
    ],
    [
      "åĭ",
      "ķ"
    ],
    [
      "Ð¾",
      "Ð"
    ],
    [
      "Ñ",
      "ģ"
    ],
    [
      "è",
      "Ļ"
    ],
    [
      "Ġa",
      "g"
    ],
    [
      "en",
      "d"
    ],
    [
      "æ¬",
      "¡"
    ],
    [
      "p",
      "er"
    ],
    [
      "p",
      "e"
    ],
    [
      "è",
      "Ĭ"
    ],
    [
      "ç³",
      "»"
    ],
    [
      "è",
      "«"
    ],
    [
      "ç",
      "¦"
    ],
    [
      "åħ",
      "±"
    ],
    [
      "é",
      "ħ"
    ],
    [
      "æĦ",
      "ı"
    ],
    [
      "æ°",
      "´"
    ],
    [
      "ç»",
      "ı"
    ],
    [
      "f",
      "f"
    ],
    [
      "æĭ",
      "ī"
    ],
    [
      "åı",
      "°"
    ],
    [
      "å",
      "Ĥ"
    ],
    [
      "å®",
      "ī"
    ],
    [
      "æ²",
      "»"
    ],
    [
      "åĪ",
      "¶"
    ],
    [
      ")",
      ","
    ],
    [
      "åı",
      "ª"
    ],
    [
      "å¹",
      "³"
    ],
    [
      "in",
      "e"
    ],
    [
      "ç",
      "ł"
    ],
    [
      "å±",
      "±"
    ],
    [
      "a",
      "g"
    ],
    [
      "è¯",
      "´"
    ],
    [
      "é",
      "©"
    ],
    [
      "Ġ",
      "im"
    ],
    [
      "é",
      "ľ"
    ],
    [
      "æĶ",
      "¯"
    ],
    [
      "ou",
      "r"
    ],
    [
      "i",
      "e"
    ],
    [
      "åİ",
      "Ł"
    ],
    [
      "a",
      "k"
    ],
    [
      "Ã",
      "³"
    ],
    [
      "Ġl",
      "e"
    ],
    [
      "æŃ",
      "£"
    ],
    [
      "ç¨",
      "ĭ"
    ],
    [
      "æ¯",
      "Ķ"
    ],
    [
      "äº",
      "Ľ"
    ],
    [
      "Ð",
      "½"
    ],
    [
      "æ",
      "¡"
    ],
    [
      "æ¼",
      "Ķ"
    ],
    [
      "Ġpro",
      "du"
    ],
    [
      "è",
      "¼"
    ],
    [
      "å¥",
      "½"
    ],
    [
      "èĩ",
      "³"
    ],
    [
      "èµ",
      "·"
    ],
    [
      "ä¸",
      "İ"
    ],
    [
      "Ġw",
      "he"
    ],
    [
      "æİ",
      "¥"
    ],
    [
      "éģ",
      "İ"
    ],
    [
      "å¾",
      "Ī"
    ],
    [
      "Ġs",
      "o"
    ],
    [
      "ä»",
      "¬"
    ],
    [
      "ic",
      "h"
    ],
    [
      "æ",
      "®"
    ],
    [
      "Ġ",
      "2"
    ],
    [
      "å",
      "ĥ"
    ],
    [
      "ç§",
      "ĳ"
    ],
    [
      "Ñ",
      "Ģ"
    ],
    [
      "é«",
      "Ķ"
    ],
    [
      "éĩ",
      "ı"
    ],
    [
      "Ġin",
      "t"
    ],
    [
      "èĭ",
      "±"
    ],
    [
      "a",
      "ge"
    ],
    [
      "å½",
      "±"
    ],
    [
      "Ġ",
      "j"
    ],
    [
      "Ġ",
      "el"
    ],
    [
      "Ġu",
      "s"
    ],
    [
      "æ",
      "©"
    ],
    [
      "ä¿",
      "Ŀ"
    ],
    [
      "p",
      "t"
    ],
    [
      "an",
      "s"
    ],
    [
      "æī",
      "ĭ"
    ],
    [
      "Ġm",
      "ore"
    ],
    [
      "å¸",
      "Ŀ"
    ],
    [
      "a",
      "re"
    ],
    [
      "Ġsa",
      "id"
    ],
    [
      "åħ",
      "ĥ"
    ],
    [
      "Ġa",
      "d"
    ],
    [
      "å·",
      "²"
    ],
    [
      "ro",
      "w"
    ],
    [
      "id",
      "e"
    ],
    [
      "ä½",
      "ł"
    ],
    [
      "Ġp",
      "er"
    ],
    [
      "æł",
      "¼"
    ],
    [
      "Ġa",
      "c"
    ],
    [
      "t",
      "her"
    ],
    [
      "Ġm",
      "e"
    ],
    [
      "è¶",
      "³"
    ],
    [
      "ac",
      "k"
    ],
    [
      "çķ",
      "Į"
    ],
    [
      "ä»",
      "¶"
    ],
    [
      "åı",
      "Ĺ"
    ],
    [
      "o",
      "k"
    ],
    [
      "æ",
      "Ĥ"
    ],
    [
      "ĠI",
      "n"
    ],
    [
      "è§",
      "£"
    ],
    [
      "åĵ",
      "ģ"
    ],
    [
      "åĬ",
      "¡"
    ],
    [
      "Ġal",
      "l"
    ],
    [
      "Ġ",
      "k"
    ],
    [
      "å°",
      "Ķ"
    ],
    [
      "Ġthe",
      "ir"
    ],
    [
      "ç",
      "·"
    ],
    [
      "Ġcon",
      "t"
    ],
    [
      "Ġin",
      "c"
    ],
    [
      "ä¿",
      "¡"
    ],
    [
      "ä¸Ń",
      "åĽ½"
    ],
    [
      "åĬ",
      "¨"
    ],
    [
      "è·",
      "¯"
    ],
    [
      "1",
      "0"
    ],
    [
      "Ġy",
      "ear"
    ],
    [
      "ä¹",
      "Ī"
    ],
    [
      "éĻ",
      "¢"
    ],
    [
      "Ġm",
      "an"
    ],
    [
      "åŁ",
      "İ"
    ],
    [
      "è¿",
      "ĩ"
    ],
    [
      "è",
      "ı"
    ],
    [
      "çı",
      "¾"
    ],
    [
      "ä½",
      "ĵ"
    ],
    [
      "æ",
      "·"
    ],
    [
      "ab",
      "le"
    ],
    [
      "åĨ",
      "Ľ"
    ],
    [
      "Ġthe",
      "y"
    ],
    [
      "r",
      "u"
    ],
    [
      "1",
      "2"
    ],
    [
      "ä¸Ģ",
      "ä¸ª"
    ],
    [
      "p",
      "ort"
    ],
    [
      "ion",
      "s"
    ],
    [
      "éĩ",
      "ĳ"
    ],
    [
      "i",
      "b"
    ],
    [
      "éĽ",
      "»"
    ],
    [
      "éĸ",
      "ĭ"
    ],
    [
      "s",
      "o"
    ],
    [
      "æĥ",
      "ħ"
    ],
    [
      "Ġb",
      "ut"
    ],
    [
      "åĢ",
      "ĳ"
    ],
    [
      "æĮ",
      "ĩ"
    ],
    [
      "ĠS",
      "t"
    ],
    [
      "åħ",
      "³"
    ],
    [
      "åı",
      "£"
    ],
    [
      "Ġre",
      "s"
    ],
    [
      "å·",
      "ŀ"
    ],
    [
      "Ġqu",
      "e"
    ],
    [
      "ç",
      "Ĺ"
    ],
    [
      "çİ",
      "°"
    ],
    [
      "g",
      "h"
    ],
    [
      "ĠT",
      "h"
    ],
    [
      "å¼",
      "Ģ"
    ],
    [
      "i",
      "re"
    ],
    [
      "in",
      "d"
    ],
    [
      "at",
      "ed"
    ],
    [
      "è»",
      "į"
    ],
    [
      "è",
      "İ"
    ],
    [
      "å",
      "¡"
    ],
    [
      "ç",
      "Ŀ"
    ],
    [
      "è",
      "°"
    ],
    [
      "on",
      "g"
    ],
    [
      "çľ",
      "ĭ"
    ],
    [
      "æķ",
      "°"
    ],
    [
      "è",
      "º"
    ],
    [
      "åĽ",
      "Ľ"
    ],
    [
      "Ġd",
      "o"
    ],
    [
      "âĢĶ",
      "âĢĶ"
    ],
    [
      "å°",
      "ĳ"
    ],
    [
      "ä»",
      "Ģ"
    ],
    [
      "æ©",
      "Ł"
    ],
    [
      "é",
      "º"
    ],
    [
      "Ġcom",
      "p"
    ],
    [
      "ä¸",
      "ľ"
    ],
    [
      "å¦Ĥ",
      "æŀľ"
    ],
    [
      "ou",
      "nt"
    ],
    [
      "ç¶",
      "ĵ"
    ],
    [
      "éķ",
      "¿"
    ],
    [
      "ç",
      "²"
    ],
    [
      "è",
      "±"
    ],
    [
      "åı",
      "²"
    ],
    [
      "çĪ",
      "¾"
    ],
    [
      "ç©",
      "º"
    ],
    [
      "ä½¿",
      "çĶ¨"
    ],
    [
      "å¸",
      "ĥ"
    ],
    [
      "Ġyou",
      "r"
    ],
    [
      "çĽ",
      "®"
    ],
    [
      "æ",
      "¶"
    ],
    [
      "a",
      "ct"
    ],
    [
      "u",
      "e"
    ],
    [
      "åĲ",
      "Ħ"
    ],
    [
      "æ",
      "¢"
    ],
    [
      "éĸ",
      "ĵ"
    ],
    [
      "Ġ",
      "K"
    ],
    [
      "å¹",
      "¶"
    ],
    [
      "e",
      "p"
    ],
    [
      "Ã",
      "Ń"
    ],
    [
      "1",
      "8"
    ],
    [
      "æµ",
      "ģ"
    ],
    [
      "èª",
      "ª"
    ],
    [
      "è",
      "Ĺ"
    ],
    [
      "åİ",
      "»"
    ],
    [
      "å°",
      "ĩ"
    ],
    [
      "ic",
      "e"
    ],
    [
      "Ġ",
      "3"
    ],
    [
      "a",
      "ke"
    ],
    [
      "å®",
      "ĥ"
    ],
    [
      "ç",
      "¸"
    ],
    [
      "å°",
      "Ĩ"
    ],
    [
      "i",
      "p"
    ],
    [
      "èī",
      "²"
    ],
    [
      "åĮ",
      "ħ"
    ],
    [
      "Ġo",
      "ut"
    ],
    [
      "v",
      "el"
    ],
    [
      "å±",
      "ķ"
    ],
    [
      "æľ",
      "Ŀ"
    ],
    [
      "æ",
      "ħ"
    ],
    [
      "ar",
      "k"
    ],
    [
      "å¤",
      "ª"
    ],
    [
      "çķ",
      "¶"
    ],
    [
      "åı",
      "¤"
    ],
    [
      "åĨ",
      "ħ"
    ],
    [
      "Ġ",
      "V"
    ],
    [
      "æ",
      "»"
    ],
    [
      "èĳ",
      "Ĺ"
    ],
    [
      "i",
      "al"
    ],
    [
      "ç",
      "į"
    ],
    [
      "å£",
      "«"
    ],
    [
      "éĿ",
      "ŀ"
    ],
    [
      "æĶ¯",
      "æĮģ"
    ],
    [
      "on",
      "e"
    ],
    [
      "èº",
      "«"
    ],
    [
      "a",
      "p"
    ],
    [
      "éĺ",
      "¿"
    ],
    [
      "ç§",
      "į"
    ],
    [
      "Ġu",
      "p"
    ],
    [
      "å",
      "Ļ"
    ],
    [
      "Ġab",
      "out"
    ],
    [
      "éĽ",
      "Ĩ"
    ],
    [
      "æ",
      "Ĵ"
    ],
    [
      "åħ",
      "§"
    ],
    [
      "ou",
      "s"
    ],
    [
      "åŃ",
      "Ĺ"
    ],
    [
      "u",
      "b"
    ],
    [
      "è¨",
      "Ģ"
    ],
    [
      "åº",
      "Ķ"
    ],
    [
      "åĲ",
      "ĳ"
    ],
    [
      "çĶ",
      "µ"
    ],
    [
      "ä¸",
      "¦"
    ],
    [
      "æĪ",
      "ĺ"
    ],
    [
      "ç",
      "¡"
    ],
    [
      "Ġg",
      "o"
    ],
    [
      "or",
      "m"
    ],
    [
      "Ġc",
      "l"
    ],
    [
      "at",
      "er"
    ],
    [
      "æľ",
      "º"
    ],
    [
      "ç¥",
      "ŀ"
    ],
    [
      "å",
      "Ķ"
    ],
    [
      "çŁ",
      "¥"
    ],
    [
      "æĶ",
      "¹"
    ],
    [
      "ç",
      "ĸ"
    ],
    [
      "éŁ",
      "³"
    ],
    [
      "å",
      "Ħ"
    ],
    [
      "éķ",
      "·"
    ],
    [
      "æ",
      "ĩ"
    ],
    [
      "Ġwh",
      "ich"
    ],
    [
      "åı",
      "¸"
    ],
    [
      "æİ",
      "¨"
    ],
    [
      "æĥ",
      "³"
    ],
    [
      "åĳ",
      "½"
    ],
    [
      "å§",
      "ĭ"
    ],
    [
      "b",
      "er"
    ],
    [
      "çĲ",
      "ĥ"
    ],
    [
      "ric",
      "ult"
    ],
    [
      "å½",
      "¢"
    ],
    [
      "æĹ¥",
      "æľ¬"
    ],
    [
      "åı",
      "į"
    ],
    [
      "ay",
      "s"
    ],
    [
      "e",
      "w"
    ],
    [
      "åĪ",
      "Ĺ"
    ],
    [
      "å",
      "²"
    ],
    [
      "å®",
      "ŀ"
    ],
    [
      "éĤ",
      "£"
    ],
    [
      "o",
      "ok"
    ],
    [
      "å",
      "¨"
    ],
    [
      "ation",
      "s"
    ],
    [
      "Ġt",
      "e"
    ],
    [
      "è¯",
      "Ń"
    ],
    [
      "æ´",
      "»"
    ],
    [
      "ä¸",
      "ļ"
    ],
    [
      "ç",
      "¯"
    ],
    [
      "éĹ",
      "´"
    ],
    [
      "è¿",
      "Ľ"
    ],
    [
      "æ¸",
      "¯"
    ],
    [
      "éĢ",
      "Ŀ"
    ],
    [
      "åĩº",
      "çĶŁ"
    ],
    [
      "è",
      "ĺ"
    ],
    [
      "ver",
      "y"
    ],
    [
      "Ġo",
      "ther"
    ],
    [
      "Ã³",
      "n"
    ],
    [
      "éĢ",
      "²"
    ],
    [
      "äº",
      "ļ"
    ],
    [
      "äº",
      "¤"
    ],
    [
      "ct",
      "ion"
    ],
    [
      "é",
      "¤"
    ],
    [
      "é¦",
      "ĸ"
    ],
    [
      "å°",
      "¼"
    ],
    [
      "ç¤",
      "¾"
    ],
    [
      "åį",
      "Ģ"
    ],
    [
      "å",
      "ŀ"
    ],
    [
      "è®",
      "¾"
    ],
    [
      "Ġwor",
      "k"
    ],
    [
      "æŀ",
      "Ĺ"
    ],
    [
      "åĳ",
      "ĺ"
    ],
    [
      "a",
      "v"
    ],
    [
      "Ã",
      "¡"
    ],
    [
      "çī",
      "ĩ"
    ],
    [
      "æĪ",
      "°"
    ],
    [
      "åħ",
      "Ī"
    ],
    [
      "as",
      "e"
    ],
    [
      "éĢĿ",
      "ä¸ĸ"
    ],
    [
      "Ġ",
      "es"
    ],
    [
      "Ġa",
      "pp"
    ],
    [
      "æ",
      "£"
    ],
    [
      "åĻ",
      "¨"
    ],
    [
      "m",
      "er"
    ],
    [
      "åĬ",
      "Ł"
    ],
    [
      "er",
      "v"
    ],
    [
      "a",
      "u"
    ],
    [
      "en",
      "s"
    ],
    [
      "å®",
      "Ĺ"
    ],
    [
      "çĽ",
      "´"
    ],
    [
      "Ġt",
      "r"
    ],
    [
      "æĶ",
      "¾"
    ],
    [
      "ç",
      "¼"
    ],
    [
      "Ġon",
      "e"
    ],
    [
      "çľ",
      "Ł"
    ],
    [
      "æľ",
      "į"
    ],
    [
      "ç",
      "ĭ"
    ],
    [
      "çµ",
      "±"
    ],
    [
      "äº",
      "§"
    ],
    [
      "an",
      "ce"
    ],
    [
      "ç»",
      "Ł"
    ],
    [
      "r",
      "am"
    ],
    [
      "çļ",
      "ĩ"
    ],
    [
      "éĢ",
      "ł"
    ],
    [
      "1",
      "1"
    ],
    [
      "è",
      "ħ"
    ],
    [
      "Ġal",
      "so"
    ],
    [
      "ç®",
      "¡"
    ],
    [
      "im",
      "e"
    ],
    [
      "Ġ20",
      "0"
    ],
    [
      "ç",
      "ĥ"
    ],
    [
      "åį",
      "¡"
    ],
    [
      "ĠI",
      "t"
    ],
    [
      "Ġh",
      "is"
    ],
    [
      "é¦",
      "¬"
    ],
    [
      "l",
      "l"
    ],
    [
      "re",
      "e"
    ],
    [
      "ç¨",
      "®"
    ],
    [
      "åº",
      "ľ"
    ],
    [
      "Ġbe",
      "en"
    ],
    [
      "é",
      "Ń"
    ],
    [
      "Ġd",
      "is"
    ],
    [
      "Ġs",
      "p"
    ],
    [
      "ç¾İ",
      "åľĭ"
    ],
    [
      "é¦",
      "Ļ"
    ],
    [
      "ac",
      "e"
    ],
    [
      "ç",
      "¢"
    ],
    [
      "éĹ",
      "ľ"
    ],
    [
      "Ġp",
      "art"
    ],
    [
      "Ġo",
      "ur"
    ],
    [
      "20",
      "0"
    ],
    [
      "æ´",
      "²"
    ],
    [
      "åħ",
      "ī"
    ],
    [
      "Ġne",
      "w"
    ],
    [
      "æĪ",
      "·"
    ],
    [
      "ç¤",
      "º"
    ],
    [
      "c",
      "ess"
    ],
    [
      "ç",
      "ĳ"
    ],
    [
      "as",
      "s"
    ],
    [
      "è",
      "į"
    ],
    [
      "Ġwh",
      "o"
    ],
    [
      "çĦ",
      "¡"
    ],
    [
      "æĹ",
      "ı"
    ],
    [
      "Ġ",
      "Y"
    ],
    [
      "ar",
      "y"
    ],
    [
      "ro",
      "p"
    ],
    [
      "å·",
      "´"
    ],
    [
      "ä¸ĸ",
      "çķĮ"
    ],
    [
      "äº",
      "ŀ"
    ],
    [
      "æ¸",
      "ħ"
    ],
    [
      "ä½",
      "ķ"
    ],
    [
      "Ð",
      "»"
    ],
    [
      "el",
      "y"
    ],
    [
      "Ġp",
      "e"
    ],
    [
      "ic",
      "al"
    ],
    [
      "äº",
      "Ķ"
    ],
    [
      "Ġp",
      "re"
    ],
    [
      "a",
      "il"
    ],
    [
      "ac",
      "h"
    ],
    [
      "it",
      "ion"
    ],
    [
      "Ġl",
      "i"
    ],
    [
      "ä¹",
      "ī"
    ],
    [
      "o",
      "b"
    ],
    [
      "æ²",
      "³"
    ],
    [
      "ä»Ģ",
      "ä¹Ī"
    ],
    [
      "ur",
      "al"
    ],
    [
      "or",
      "d"
    ],
    [
      "it",
      "e"
    ],
    [
      "am",
      "e"
    ],
    [
      "Ġg",
      "row"
    ],
    [
      "ç",
      "¿"
    ],
    [
      "ç",
      "ª"
    ],
    [
      "æ¥",
      "Ń"
    ],
    [
      "os",
      "e"
    ],
    [
      "æĦ",
      "Ł"
    ],
    [
      "å·",
      "±"
    ],
    [
      "æľ",
      "ª"
    ],
    [
      "çĻ",
      "½"
    ],
    [
      "Ġth",
      "an"
    ],
    [
      "æķ",
      "¸"
    ],
    [
      "å½",
      "ĵ"
    ],
    [
      "æĸ",
      "Ń"
    ],
    [
      "åı",
      "ĸ"
    ],
    [
      "æ",
      "¹"
    ],
    [
      "è¯",
      "¥"
    ],
    [
      "ig",
      "n"
    ],
    [
      "ä¸į",
      "è¶³"
    ],
    [
      "ç±",
      "»"
    ],
    [
      "é©",
      "¬"
    ],
    [
      "c",
      "es"
    ],
    [
      "åį",
      "³"
    ],
    [
      "ä¾",
      "ĭ"
    ],
    [
      "åķ",
      "Ĩ"
    ],
    [
      "Ġcon",
      "s"
    ],
    [
      "æĬ",
      "Ģ"
    ],
    [
      "Ġs",
      "ome"
    ],
    [
      "1",
      "3"
    ],
    [
      "Ġ",
      "4"
    ],
    [
      "Ġf",
      "ood"
    ],
    [
      "çł",
      "Ķ"
    ],
    [
      "il",
      "e"
    ],
    [
      "âĢ",
      "ĵ"
    ],
    [
      "éĤ",
      "Ħ"
    ],
    [
      "éľ",
      "Ģ"
    ],
    [
      "è",
      "Ĵ"
    ],
    [
      "res",
      "s"
    ],
    [
      "å®",
      "¹"
    ],
    [
      "ä¸Ń",
      "åľĭ"
    ],
    [
      "åŀ",
      "ĭ"
    ],
    [
      "ç",
      "ħ"
    ],
    [
      "Ġw",
      "ould"
    ],
    [
      "åŃ",
      "ĺ"
    ],
    [
      "ĠC",
      "h"
    ],
    [
      "ç±",
      "³"
    ],
    [
      "è®",
      "º"
    ],
    [
      "ä¸Ģ",
      "åĢĭ"
    ],
    [
      "Ã",
      "©"
    ],
    [
      "or",
      "n"
    ],
    [
      "Ġe",
      "v"
    ],
    [
      "ar",
      "i"
    ],
    [
      "on",
      "s"
    ],
    [
      "èĩª",
      "å·±"
    ],
    [
      "é",
      "Į"
    ],
    [
      "éģ",
      "ĭ"
    ],
    [
      "ä¾",
      "Ľ"
    ],
    [
      "çĶ",
      "·"
    ],
    [
      "çģ",
      "£"
    ],
    [
      "1",
      "5"
    ],
    [
      "å®",
      "Į"
    ],
    [
      "Ġre",
      "c"
    ],
    [
      "æ¡",
      "Ī"
    ],
    [
      "å¤",
      "«"
    ],
    [
      "çī",
      "Ī"
    ],
    [
      "æº",
      "Ĳ"
    ],
    [
      "Ġ",
      "est"
    ],
    [
      "Ġit",
      "s"
    ],
    [
      "at",
      "es"
    ],
    [
      "åĨ",
      "į"
    ],
    [
      "æĬ",
      "Ĭ"
    ],
    [
      "è",
      "Į"
    ],
    [
      "ç",
      "¹"
    ],
    [
      "Ġ",
      "5"
    ],
    [
      "æĿ",
      "±"
    ],
    [
      "åĥ",
      "ı"
    ],
    [
      "i",
      "ent"
    ],
    [
      "ä¸",
      "Ķ"
    ],
    [
      "f",
      "orm"
    ],
    [
      "ç¾",
      "ħ"
    ],
    [
      "ç»",
      "ĵ"
    ],
    [
      "è¯ģæį®",
      "ä¸įè¶³"
    ],
    [
      "..",
      "."
    ],
    [
      "çĹ",
      "ħ"
    ],
    [
      "æĿ",
      "İ"
    ],
    [
      "ä»",
      "İ"
    ],
    [
      "é»",
      "ŀ"
    ],
    [
      "ä»",
      "Ĭ"
    ],
    [
      "è®",
      "¡"
    ],
    [
      "ad",
      "e"
    ],
    [
      "g",
      "an"
    ],
    [
      "Ñ",
      "ĥ"
    ],
    [
      "in",
      "t"
    ],
    [
      "å¤",
      "±"
    ],
    [
      "1",
      "7"
    ],
    [
      "ç§",
      "°"
    ],
    [
      "ç¨",
      "±"
    ],
    [
      "æĹ",
      "ł"
    ],
    [
      "æ¯",
      "ı"
    ],
    [
      "1",
      "4"
    ],
    [
      "Ġwe",
      "re"
    ],
    [
      "è¿",
      "ĳ"
    ],
    [
      "å¯",
      "¦"
    ],
    [
      "ç½",
      "Ĺ"
    ],
    [
      "èª",
      "ŀ"
    ],
    [
      "Ġof",
      "f"
    ],
    [
      "åĽ½",
      "å®¶"
    ],
    [
      "Ġthe",
      "re"
    ],
    [
      "en",
      "ce"
    ],
    [
      "çĤ",
      "¹"
    ],
    [
      "åı",
      "Ī"
    ],
    [
      "ä¸",
      "¤"
    ],
    [
      "er",
      "t"
    ],
    [
      "åħ",
      "·"
    ],
    [
      "æĤ",
      "¨"
    ],
    [
      "Ġa",
      "m"
    ],
    [
      "ĠU",
      "n"
    ],
    [
      "or",
      "s"
    ],
    [
      "ä¼",
      "Ĭ"
    ],
    [
      "Ġpl",
      "ant"
    ],
    [
      "Ġbe",
      "c"
    ],
    [
      "Ġn",
      "o"
    ],
    [
      "ç©",
      "¶"
    ],
    [
      "l",
      "ic"
    ],
    [
      "Ġo",
      "ver"
    ],
    [
      "1",
      "6"
    ],
    [
      "ä¼",
      "ł"
    ],
    [
      "æ²",
      "Ĵ"
    ],
    [
      "n",
      "ow"
    ],
    [
      "æł",
      "¡"
    ],
    [
      "å§",
      "Ķ"
    ],
    [
      "ç¬¬",
      "ä¸Ģ"
    ],
    [
      "Ġthe",
      "m"
    ],
    [
      "çĶ¨",
      "æĪ·"
    ],
    [
      "èĢ",
      "ĥ"
    ],
    [
      "éĻ",
      "¤"
    ],
    [
      "Ġcom",
      "m"
    ],
    [
      "Ġm",
      "y"
    ],
    [
      "å¹´",
      "éĢĿä¸ĸ"
    ],
    [
      "Ġ",
      "ro"
    ],
    [
      "Ġd",
      "es"
    ],
    [
      "èģ",
      "Ķ"
    ],
    [
      "é¦Ļ",
      "æ¸¯"
    ],
    [
      "åħ",
      "©"
    ],
    [
      "é",
      "ĵ"
    ],
    [
      "ä»",
      "¤"
    ],
    [
      "çĶ",
      "¢"
    ],
    [
      "æŃ",
      "»"
    ],
    [
      "æł",
      "¹"
    ],
    [
      "è",
      "Ħ"
    ],
    [
      "æĢ",
      "»"
    ],
    [
      "æ±",
      "Ĥ"
    ],
    [
      "çľ",
      "ģ"
    ],
    [
      "æŁ",
      "¥"
    ],
    [
      "æ¨",
      "¡"
    ],
    [
      "k",
      "s"
    ],
    [
      "è¿Ļ",
      "ä¸ª"
    ],
    [
      "æŃ",
      "¦"
    ],
    [
      "il",
      "d"
    ],
    [
      "æł",
      "·"
    ],
    [
      "æĩ",
      "ī"
    ],
    [
      "æĽ´",
      "å¤ļ"
    ],
    [
      "å¹´",
      "åĩºçĶŁ"
    ],
    [
      "c",
      "on"
    ],
    [
      "Ġint",
      "o"
    ],
    [
      "Ġt",
      "ime"
    ],
    [
      "re",
      "at"
    ],
    [
      "å¥",
      "¹"
    ],
    [
      "Ġun",
      "a"
    ],
    [
      "Ġl",
      "os"
    ],
    [
      "Ġfarm",
      "ers"
    ],
    [
      "if",
      "ic"
    ],
    [
      "er",
      "n"
    ],
    [
      "Ġ19",
      "9"
    ],
    [
      "op",
      "le"
    ],
    [
      "Ġf",
      "e"
    ],
    [
      "çłĶ",
      "ç©¶"
    ],
    [
      "è¶",
      "ħ"
    ],
    [
      "å®",
      "ĺ"
    ],
    [
      "è¿",
      "ĺ"
    ],
    [
      "ç¾",
      "©"
    ],
    [
      "åģ",
      "ļ"
    ],
    [
      "Ġwhe",
      "n"
    ],
    [
      ")",
      "ãĢĤ"
    ],
    [
      "æĸ",
      "Ļ"
    ],
    [
      "è¨",
      "Ń"
    ],
    [
      "ç¸",
      "½"
    ],
    [
      "æĺ¯",
      "ä»Ģä¹Ī"
    ],
    [
      "ou",
      "nd"
    ],
    [
      "è±",
      "¡"
    ],
    [
      "å¾",
      "ŀ"
    ],
    [
      "å¼",
      "ķ"
    ],
    [
      "åį",
      "İ"
    ],
    [
      "Ġg",
      "et"
    ],
    [
      "å¢",
      "ŀ"
    ],
    [
      "ç¡",
      "®"
    ],
    [
      "é",
      "ª"
    ],
    [
      "æĶ",
      "¶"
    ],
    [
      "æ",
      "ļ"
    ],
    [
      "ing",
      "s"
    ],
    [
      "åı¯",
      "èĥ½"
    ],
    [
      "å®",
      "¢"
    ],
    [
      "Ġ19",
      "8"
    ],
    [
      "Ġag",
      "ricult"
    ],
    [
      "åĳ",
      "¨"
    ],
    [
      "ar",
      "a"
    ],
    [
      "æĽ",
      "¸"
    ],
    [
      "o",
      "v"
    ],
    [
      "T",
      "he"
    ],
    [
      "åľ",
      "Ł"
    ],
    [
      "ol",
      "og"
    ],
    [
      ",",
      "âĢĿ"
    ],
    [
      "æ",
      "¿"
    ],
    [
      "Ġne",
      "ed"
    ],
    [
      "Ñ",
      "ı"
    ],
    [
      "åħ¶",
      "ä»ĸ"
    ],
    [
      "Ġli",
      "ke"
    ],
    [
      "g",
      "ram"
    ],
    [
      "æ²",
      "¡"
    ],
    [
      "æĶ¿",
      "åºľ"
    ],
    [
      "èĬ",
      "±"
    ],
    [
      "èı",
      "¯"
    ],
    [
      "æĶ¿",
      "æ²»"
    ],
    [
      "an",
      "g"
    ],
    [
      "Ġm",
      "u"
    ],
    [
      "iv",
      "ers"
    ],
    [
      "rou",
      "nd"
    ],
    [
      "Ġ1",
      "8"
    ],
    [
      "l",
      "p"
    ],
    [
      "éģ",
      "¸"
    ],
    [
      "ĠW",
      "e"
    ],
    [
      "çµ",
      "Ĳ"
    ],
    [
      "Ġwh",
      "at"
    ],
    [
      "ation",
      "al"
    ],
    [
      "re",
      "d"
    ],
    [
      "è®",
      "°"
    ],
    [
      "åº",
      "Ĺ"
    ],
    [
      "æĺ",
      "Ł"
    ],
    [
      "ç»",
      "Ħ"
    ],
    [
      "Ġim",
      "p"
    ],
    [
      "æī",
      "ĵ"
    ],
    [
      "ĠTh",
      "is"
    ],
    [
      "æĻ",
      "®"
    ],
    [
      "åł",
      "´"
    ],
    [
      "çĿ",
      "Ģ"
    ],
    [
      "u",
      "al"
    ],
    [
      "Ð",
      "º"
    ],
    [
      "ol",
      "d"
    ],
    [
      "ä»¥",
      "åıĬ"
    ],
    [
      "or",
      "y"
    ],
    [
      "è³",
      "ĩ"
    ],
    [
      "åħ¬",
      "åı¸"
    ],
    [
      "vel",
      "op"
    ],
    [
      "çļĦ",
      "äºº"
    ],
    [
      "ark",
      "et"
    ],
    [
      "Ġ",
      "if"
    ],
    [
      "Ġc",
      "o"
    ],
    [
      "è¾",
      "¾"
    ],
    [
      "Ġh",
      "ad"
    ],
    [
      "Ġinc",
      "l"
    ],
    [
      "Ġa",
      "r"
    ],
    [
      "å°±",
      "æĺ¯"
    ],
    [
      "ol",
      "l"
    ],
    [
      "çº",
      "§"
    ],
    [
      "ç",
      "Ĩ"
    ],
    [
      "åľ",
      "º"
    ],
    [
      "19",
      "9"
    ],
    [
      "æĭ",
      "¬"
    ],
    [
      "ĠA",
      "s"
    ],
    [
      "Ġyear",
      "s"
    ],
    [
      "Ġpe",
      "ople"
    ],
    [
      "æīĢ",
      "æľī"
    ],
    [
      "it",
      "t"
    ],
    [
      "å",
      "³"
    ],
    [
      "Ġhe",
      "lp"
    ],
    [
      "åħ",
      "Ń"
    ],
    [
      "Ð",
      "¼"
    ],
    [
      "æŃ",
      "¥"
    ],
    [
      "æĢ",
      "Ŀ"
    ],
    [
      "f",
      "t"
    ],
    [
      "l",
      "es"
    ],
    [
      "å¢",
      "ĥ"
    ],
    [
      "è§",
      "Ĵ"
    ],
    [
      "èĢ",
      "ģ"
    ],
    [
      "äº",
      "¬"
    ],
    [
      "è¿",
      "Ĳ"
    ],
    [
      "i",
      "Ã³n"
    ],
    [
      "e",
      "c"
    ],
    [
      "rou",
      "gh"
    ],
    [
      "æ±",
      "Ł"
    ],
    [
      "ç",
      "ĩ"
    ],
    [
      "æŃ",
      "Į"
    ],
    [
      "ç«",
      "Ļ"
    ],
    [
      "è¶",
      "Ĭ"
    ],
    [
      "ä¸»",
      "è¦ģ"
    ],
    [
      "çª",
      "ģ"
    ],
    [
      "e",
      "f"
    ],
    [
      "is",
      "h"
    ],
    [
      "Ġg",
      "en"
    ],
    [
      "å±",
      "Ģ"
    ],
    [
      "æī",
      "į"
    ],
    [
      "a",
      "ir"
    ],
    [
      "Ġ",
      "|"
    ],
    [
      "æķ",
      "´"
    ],
    [
      "è¦",
      "ĸ"
    ],
    [
      "è«",
      "ĸ"
    ],
    [
      "Ġs",
      "pe"
    ],
    [
      "äºº",
      "æ°ĳ"
    ],
    [
      "è»",
      "Ĭ"
    ],
    [
      "Ġhe",
      "r"
    ],
    [
      "çŁ",
      "³"
    ],
    [
      "Ġan",
      "y"
    ],
    [
      "ä¸Ń",
      "çļĦ"
    ],
    [
      "Ñ",
      "ĭ"
    ],
    [
      "é",
      "¾"
    ],
    [
      "åį",
      "°"
    ],
    [
      "è¨",
      "Ī"
    ],
    [
      "ç½",
      "ĳ"
    ],
    [
      "ä»»",
      "åĬ¡"
    ],
    [
      "Ġk",
      "now"
    ],
    [
      "è®",
      "Ĭ"
    ],
    [
      "Ġu",
      "se"
    ],
    [
      "ç´",
      "Ģ"
    ],
    [
      "çĻ",
      "¾"
    ],
    [
      "ç«",
      "ł"
    ],
    [
      "ig",
      "h"
    ],
    [
      "æĪĳ",
      "ä»¬"
    ],
    [
      "åĮħ",
      "æĭ¬"
    ],
    [
      "å¸",
      "Į"
    ],
    [
      "åĤ",
      "³"
    ],
    [
      "Ġre",
      "g"
    ],
    [
      "åĭ",
      "Ļ"
    ],
    [
      "Ġ",
      "åľ¨"
    ],
    [
      "ç®",
      "Ĺ"
    ],
    [
      "åħ",
      "µ"
    ],
    [
      "éĥ¨",
      "åĪĨ"
    ],
    [
      "ĠH",
      "e"
    ],
    [
      "-",
      "-"
    ],
    [
      "èĺ",
      "Ń"
    ],
    [
      ".",
      "âĢĿ"
    ],
    [
      "i",
      "el"
    ],
    [
      "æ¨",
      "Ĥ"
    ],
    [
      "åį",
      "ļ"
    ],
    [
      "éĢ",
      "Ł"
    ],
    [
      "å¿",
      "ħ"
    ],
    [
      "Ġf",
      "l"
    ],
    [
      "çİ",
      "ĩ"
    ],
    [
      "æľ",
      "¯"
    ],
    [
      "Ġh",
      "ow"
    ],
    [
      "o",
      "ve"
    ],
    [
      "ä¹",
      "¦"
    ],
    [
      "Ġpro",
      "v"
    ],
    [
      "ç½",
      "®"
    ],
    [
      "éģ",
      "Ķ"
    ],
    [
      "Ġu",
      "nd"
    ],
    [
      "é",
      "Ĩ"
    ],
    [
      "ir",
      "st"
    ],
    [
      "Ġm",
      "ost"
    ],
    [
      "Ġsu",
      "pp"
    ],
    [
      "ic",
      "k"
    ],
    [
      "j",
      "ect"
    ],
    [
      "ç",
      "Ĭ"
    ],
    [
      "ç¾İ",
      "åĽ½"
    ],
    [
      "au",
      "se"
    ],
    [
      "æıĲ",
      "ä¾Ľ"
    ],
    [
      "Ġj",
      "ust"
    ],
    [
      "æĺ",
      "ĵ"
    ],
    [
      "åı",
      "Ĥ"
    ],
    [
      "ç´",
      "Ħ"
    ],
    [
      "è®",
      "¤"
    ],
    [
      "åī",
      "ĩ"
    ],
    [
      "ä¿",
      "®"
    ],
    [
      "Ġ",
      "6"
    ],
    [
      "æģ",
      "¯"
    ],
    [
      "æĽ",
      "¾"
    ],
    [
      "é",
      "Ķ"
    ],
    [
      "æ³",
      "¢"
    ],
    [
      "ra",
      "in"
    ],
    [
      "Ġad",
      "d"
    ],
    [
      "æĪ",
      "¿"
    ],
    [
      "ç¶",
      "²"
    ],
    [
      "ä½",
      "ı"
    ],
    [
      "it",
      "ies"
    ],
    [
      "x",
      "t"
    ],
    [
      "åı",
      "ĺ"
    ],
    [
      "y",
      "st"
    ],
    [
      "é",
      "Ĵ"
    ],
    [
      "å¾",
      "Ģ"
    ],
    [
      "å¯",
      "¼"
    ],
    [
      "Ñ",
      "Į"
    ],
    [
      "é¡",
      "ŀ"
    ],
    [
      "Ġb",
      "u"
    ],
    [
      "Ġd",
      "el"
    ],
    [
      "å",
      "©"
    ],
    [
      "if",
      "f"
    ],
    [
      "æ²¡",
      "æľī"
    ],
    [
      "å¤",
      "Ħ"
    ],
    [
      "èĤ",
      "²"
    ],
    [
      "å¸",
      "«"
    ],
    [
      "ä¾",
      "¿"
    ],
    [
      "i",
      "an"
    ],
    [
      "ç´",
      "ł"
    ],
    [
      "Ġt",
      "w"
    ],
    [
      "å¹",
      "¿"
    ],
    [
      "é¢",
      "Ĩ"
    ],
    [
      "åľ",
      "ĸ"
    ],
    [
      "00",
      "0"
    ],
    [
      "ç",
      "ĵ"
    ],
    [
      "çļĦ",
      "ä¸Ģ"
    ],
    [
      "Ð",
      "²"
    ],
    [
      "æĹ",
      "©"
    ],
    [
      "c",
      "ent"
    ],
    [
      "Ġc",
      "rop"
    ],
    [
      "æ¯",
      "į"
    ],
    [
      "åı°",
      "çģ£"
    ],
    [
      "n",
      "e"
    ],
    [
      "å¨",
      "ģ"
    ],
    [
      "ĠP",
      "ro"
    ],
    [
      "ment",
      "s"
    ],
    [
      "èĩ",
      "´"
    ],
    [
      "he",
      "d"
    ],
    [
      "æĿ",
      "ĥ"
    ],
    [
      "æ°",
      "£"
    ],
    [
      "æĸĩ",
      "åĮĸ"
    ],
    [
      "æ¼Ķ",
      "åĵ¡"
    ],
    [
      "Ġincl",
      "ud"
    ],
    [
      "o",
      "y"
    ],
    [
      "Ġc",
      "ount"
    ],
    [
      "in",
      "k"
    ],
    [
      "æĦ",
      "Ľ"
    ],
    [
      "3",
      "0"
    ],
    [
      "Ġex",
      "p"
    ],
    [
      "æ¬",
      "Ĭ"
    ],
    [
      "æĪĳ",
      "åĢĳ"
    ],
    [
      "i",
      "o"
    ],
    [
      "çº",
      "¦"
    ],
    [
      "è®",
      "®"
    ],
    [
      "ow",
      "n"
    ],
    [
      "å±",
      "ŀ"
    ],
    [
      "w",
      "e"
    ],
    [
      "å°",
      "İ"
    ],
    [
      "ä¸į",
      "åĲĮ"
    ],
    [
      "ic",
      "a"
    ],
    [
      "å·¥",
      "ä½ľ"
    ],
    [
      "ç²",
      "¾"
    ],
    [
      "æķ",
      "Ī"
    ],
    [
      "Ġc",
      "ould"
    ],
    [
      "åŁ",
      "Ł"
    ],
    [
      "è",
      "¬"
    ],
    [
      "ĠA",
      "g"
    ],
    [
      "il",
      "y"
    ],
    [
      "Ġ",
      "7"
    ],
    [
      "Ġde",
      "c"
    ],
    [
      "è®",
      "ĵ"
    ],
    [
      "éħ",
      "Ĵ"
    ],
    [
      "Ġim",
      "port"
    ],
    [
      "Ġth",
      "rough"
    ],
    [
      "w",
      "n"
    ],
    [
      "5",
      "0"
    ],
    [
      "Ġm",
      "ay"
    ],
    [
      "èª",
      "į"
    ],
    [
      "è¡",
      "ĵ"
    ],
    [
      "åİ",
      "¿"
    ],
    [
      "èģ",
      "¯"
    ],
    [
      "æ³",
      "¨"
    ],
    [
      "Ġm",
      "ake"
    ],
    [
      "ra",
      "ct"
    ],
    [
      "'",
      "t"
    ],
    [
      "ent",
      "s"
    ],
    [
      "Ġp",
      "r"
    ],
    [
      "æĹ",
      "ħ"
    ],
    [
      "e",
      "g"
    ],
    [
      "åĬ",
      "©"
    ],
    [
      "èµ",
      "Ħ"
    ],
    [
      "ar",
      "ch"
    ],
    [
      "ä¸į",
      "èĥ½"
    ],
    [
      "éł",
      "ĺ"
    ],
    [
      "æ",
      "Ĳ"
    ],
    [
      "Ġde",
      "velop"
    ],
    [
      "çħ",
      "§"
    ],
    [
      "c",
      "om"
    ],
    [
      "æ®",
      "µ"
    ],
    [
      "c",
      "ed"
    ],
    [
      "åľ",
      "ĺ"
    ],
    [
      "å¿",
      "«"
    ],
    [
      "Ġ",
      "$"
    ],
    [
      "Ġpro",
      "gram"
    ],
    [
      "am",
      "p"
    ],
    [
      "çº",
      "¿"
    ],
    [
      "Ġg",
      "r"
    ],
    [
      "æ",
      "ĳ"
    ],
    [
      "å¾",
      "ĭ"
    ],
    [
      "æ¨",
      "£"
    ],
    [
      "åı",
      "¦"
    ],
    [
      "ç¦",
      "ı"
    ],
    [
      "Ġthe",
      "se"
    ],
    [
      "Ġman",
      "y"
    ],
    [
      "u",
      "c"
    ],
    [
      "Ġb",
      "et"
    ],
    [
      "åĵ",
      "Ī"
    ],
    [
      "éĸ",
      "Ģ"
    ],
    [
      "Ġw",
      "ater"
    ],
    [
      "åº",
      "ı"
    ],
    [
      "Ġon",
      "ly"
    ],
    [
      "u",
      "nd"
    ],
    [
      "Ġs",
      "he"
    ],
    [
      "è§",
      "Ĩ"
    ],
    [
      "åħ",
      "°"
    ],
    [
      "åħ",
      "«"
    ],
    [
      "è´",
      "¨"
    ],
    [
      "ä¸",
      "ĩ"
    ],
    [
      "g",
      "ht"
    ],
    [
      "Ġb",
      "l"
    ],
    [
      "åİ",
      "Ĩ"
    ],
    [
      "æ",
      "¦"
    ],
    [
      "ç",
      "Į"
    ],
    [
      "an",
      "ge"
    ],
    [
      "èŃ",
      "°"
    ],
    [
      "g",
      "et"
    ],
    [
      "åĽ",
      "¾"
    ],
    [
      "Ġm",
      "arket"
    ],
    [
      "iel",
      "d"
    ],
    [
      "Ġp",
      "ara"
    ],
    [
      "æĸ",
      "½"
    ],
    [
      "Ġprodu",
      "ct"
    ],
    [
      "al",
      "s"
    ],
    [
      "yst",
      "em"
    ],
    [
      "åı",
      "·"
    ],
    [
      "æµ",
      "İ"
    ],
    [
      "åħ",
      "į"
    ],
    [
      "ow",
      "s"
    ],
    [
      "Ġ19",
      "7"
    ],
    [
      "Ġin",
      "v"
    ],
    [
      "å®",
      "£"
    ],
    [
      "æ°",
      "Ķ"
    ],
    [
      "åı",
      "ĭ"
    ],
    [
      "Ġe",
      "m"
    ],
    [
      "Ġf",
      "irst"
    ],
    [
      "æ",
      "½"
    ],
    [
      "Ġ",
      "8"
    ],
    [
      "is",
      "s"
    ],
    [
      "è¨",
      "ĺ"
    ],
    [
      "åĽł",
      "æŃ¤"
    ],
    [
      "åĪ",
      "¥"
    ],
    [
      "åĢ",
      "Ļ"
    ],
    [
      "as",
      "ed"
    ],
    [
      "ri",
      "b"
    ],
    [
      "n",
      "g"
    ],
    [
      "ur",
      "n"
    ],
    [
      "æ",
      "§"
    ],
    [
      "åĪ",
      "Ŀ"
    ],
    [
      "er",
      "m"
    ],
    [
      "on",
      "d"
    ],
    [
      "åķ",
      "ı"
    ],
    [
      "é£",
      "Ł"
    ],
    [
      "Ġs",
      "c"
    ],
    [
      "æĬ",
      "ķ"
    ],
    [
      "Ġe",
      "ff"
    ],
    [
      "Ġw",
      "ell"
    ],
    [
      "å¿",
      "µ"
    ],
    [
      "åĳ",
      "Ĭ"
    ],
    [
      "è³",
      "ª"
    ],
    [
      "èĻ",
      "Ł"
    ],
    [
      "æĴ",
      "Ń"
    ],
    [
      "Ġ",
      "ent"
    ],
    [
      "et",
      "h"
    ],
    [
      "æĻ",
      "¯"
    ],
    [
      "åı",
      "ĥ"
    ],
    [
      "ä½",
      "İ"
    ],
    [
      "èĻ",
      "ķ"
    ],
    [
      "il",
      "ity"
    ],
    [
      "æ²Ĵ",
      "æľī"
    ],
    [
      "ç·",
      "ļ"
    ],
    [
      "2",
      "2"
    ],
    [
      "ĠW",
      "h"
    ],
    [
      "éħ",
      "į"
    ],
    [
      "Ġa",
      "ct"
    ],
    [
      "at",
      "ive"
    ],
    [
      "Ġl",
      "oc"
    ],
    [
      "æĺ¯",
      "ä¸Ģ"
    ],
    [
      ".",
      "\""
    ],
    [
      "..",
      ".."
    ],
    [
      "éĻ",
      "Ĳ"
    ],
    [
      "æ²",
      "Ļ"
    ],
    [
      "æķ",
      "ħ"
    ],
    [
      "Ġ",
      "âĢĵ"
    ],
    [
      "is",
      "e"
    ],
    [
      "åĢ",
      "¼"
    ],
    [
      "it",
      "s"
    ],
    [
      "å¼",
      "µ"
    ],
    [
      "éĹ",
      "¨"
    ],
    [
      "äºº",
      "åı£"
    ],
    [
      "Ġ1",
      "0"
    ],
    [
      "Ġs",
      "m"
    ],
    [
      "çº",
      "ª"
    ],
    [
      "ch",
      "n"
    ],
    [
      "Ġmu",
      "ch"
    ],
    [
      "i",
      "en"
    ],
    [
      "Ñ",
      "ĩ"
    ],
    [
      "Ġtw",
      "o"
    ],
    [
      "in",
      "ess"
    ],
    [
      "æĽ",
      "¼"
    ],
    [
      "ä¼",
      "¯"
    ],
    [
      "éľĢ",
      "è¦ģ"
    ],
    [
      "ç¬¬",
      "äºĮ"
    ],
    [
      "çģ",
      "«"
    ],
    [
      "çµ",
      "Ħ"
    ],
    [
      "ĠÐ",
      "¿"
    ],
    [
      "æ´",
      "¾"
    ],
    [
      "f",
      "ter"
    ],
    [
      "it",
      "ed"
    ],
    [
      "æ¶",
      "Ī"
    ],
    [
      "id",
      "ent"
    ],
    [
      "Ġd",
      "iff"
    ],
    [
      "ill",
      "ion"
    ],
    [
      "ou",
      "gh"
    ],
    [
      "on",
      "t"
    ],
    [
      "Ġv",
      "ari"
    ],
    [
      "å¯",
      "Ĩ"
    ],
    [
      "å¿",
      "Ĺ"
    ],
    [
      "Ġ",
      ","
    ],
    [
      "é¡",
      "Į"
    ],
    [
      "éĿ",
      "©"
    ],
    [
      "çķ",
      "«"
    ],
    [
      "Ġl",
      "and"
    ],
    [
      "Ġb",
      "us"
    ],
    [
      "r",
      "it"
    ],
    [
      "u",
      "ed"
    ],
    [
      "åħ",
      "¸"
    ],
    [
      "è§",
      "Ģ"
    ],
    [
      "è¦",
      "ĭ"
    ],
    [
      "å±",
      "ħ"
    ],
    [
      "æ¼",
      "¢"
    ],
    [
      "åį",
      "Ĭ"
    ],
    [
      "æĶ",
      "»"
    ],
    [
      "å·²",
      "ç»ı"
    ],
    [
      "at",
      "ing"
    ],
    [
      "19",
      "8"
    ],
    [
      "Ġsu",
      "ch"
    ],
    [
      "ĠC",
      "om"
    ],
    [
      "Ġre",
      "l"
    ],
    [
      "Ġor",
      "gan"
    ],
    [
      "éĢ",
      "£"
    ],
    [
      "Ġin",
      "du"
    ],
    [
      "éĢ",
      "ī"
    ],
    [
      "Ġwhe",
      "re"
    ],
    [
      "Ñģ",
      "ÑĤ"
    ],
    [
      "æ",
      "¾"
    ],
    [
      "ç¾",
      "¤"
    ],
    [
      "äºº",
      "çļĦ"
    ],
    [
      "æīĢ",
      "ä»¥"
    ],
    [
      "è§",
      "ģ"
    ],
    [
      "å¤§",
      "åŃ¦"
    ],
    [
      "å¤",
      "®"
    ],
    [
      "é",
      "²"
    ],
    [
      "åºĶ",
      "è¯¥"
    ],
    [
      "åĪ",
      "«"
    ],
    [
      "ä¹",
      "Ŀ"
    ],
    [
      "éĺ",
      "²"
    ],
    [
      "Ġwor",
      "ld"
    ],
    [
      "b",
      "le"
    ],
    [
      "an",
      "y"
    ],
    [
      "Ġ",
      "9"
    ],
    [
      "ç¶",
      "Ń"
    ],
    [
      "l",
      "and"
    ],
    [
      "Ġf",
      "am"
    ],
    [
      "ç»",
      "´"
    ],
    [
      "ib",
      "le"
    ],
    [
      "at",
      "t"
    ],
    [
      "æľ",
      "Ľ"
    ],
    [
      "ä¿",
      "Ħ"
    ],
    [
      "Ġin",
      "ter"
    ],
    [
      "Ġc",
      "re"
    ],
    [
      "Ġc",
      "ol"
    ],
    [
      "Ġp",
      "os"
    ],
    [
      "Ġund",
      "er"
    ],
    [
      "i",
      "ed"
    ],
    [
      "åĸ",
      "®"
    ],
    [
      "åĲĮ",
      "æĹ¶"
    ],
    [
      "ic",
      "s"
    ],
    [
      "ä¸",
      "ĥ"
    ],
    [
      "ad",
      "o"
    ],
    [
      "he",
      "n"
    ],
    [
      "éĩį",
      "è¦ģ"
    ],
    [
      "2",
      "5"
    ],
    [
      "æİ¨",
      "æĸŃ"
    ],
    [
      "æ·",
      "±"
    ],
    [
      "ä»¥",
      "æĶ¯æĮģ"
    ],
    [
      "a",
      "j"
    ],
    [
      "å®",
      "¤"
    ],
    [
      "æĪĲ",
      "ç«ĭ"
    ],
    [
      ",",
      "\""
    ],
    [
      "ä¸Ĭ",
      "çļĦ"
    ],
    [
      "èĲ",
      "¬"
    ],
    [
      "Ġindu",
      "st"
    ],
    [
      "æĬ",
      "¥"
    ],
    [
      "è¯ģæį®ä¸įè¶³",
      "ä»¥æĶ¯æĮģ"
    ],
    [
      "æĽ´å¤ļ",
      "æİ¨æĸŃ"
    ],
    [
      "è¯ģæį®ä¸įè¶³ä»¥æĶ¯æĮģ",
      "æĽ´å¤ļæİ¨æĸŃ"
    ],
    [
      "çķ",
      "Ļ"
    ],
    [
      "Ġp",
      "o"
    ],
    [
      "ä¸į",
      "æĺ¯"
    ],
    [
      "èĴ",
      "Ļ"
    ],
    [
      "éł",
      "Ń"
    ],
    [
      "ul",
      "ar"
    ],
    [
      "ä»",
      "½"
    ],
    [
      "oc",
      "k"
    ],
    [
      "åį",
      "ķ"
    ],
    [
      "æł",
      "ĩ"
    ],
    [
      "å¤§",
      "çļĦ"
    ],
    [
      "Ġe",
      "very"
    ],
    [
      "èĬ",
      "Ĥ"
    ],
    [
      "Ġbec",
      "ause"
    ],
    [
      "ro",
      "s"
    ],
    [
      "al",
      "th"
    ],
    [
      "Ġp",
      "res"
    ],
    [
      "Ġw",
      "ant"
    ],
    [
      "ä¸Ń",
      "å¿ĥ"
    ],
    [
      "åº",
      "·"
    ],
    [
      "ot",
      "h"
    ],
    [
      "Ġst",
      "ate"
    ],
    [
      "åį",
      "ł"
    ],
    [
      "ĠA",
      "mer"
    ],
    [
      "é¢",
      "¨"
    ],
    [
      "Ġ",
      "ke"
    ],
    [
      "å¥",
      "¥"
    ],
    [
      "ĠB",
      "ut"
    ],
    [
      "Ġus",
      "ed"
    ],
    [
      "åģ",
      "ĩ"
    ],
    [
      "è",
      "ĸ"
    ],
    [
      "Ġse",
      "e"
    ],
    [
      "çı",
      "Ń"
    ],
    [
      "æĽ",
      "²"
    ],
    [
      "åħ±",
      "åĴĮ"
    ],
    [
      "å¾",
      "®"
    ],
    [
      "æ¸",
      "¸"
    ],
    [
      "ak",
      "ing"
    ],
    [
      "éģ",
      "Ĭ"
    ],
    [
      "æŀ",
      "Ħ"
    ],
    [
      "åŁİ",
      "å¸Ĥ"
    ],
    [
      "p",
      "h"
    ],
    [
      "Ġn",
      "ow"
    ],
    [
      "æĿ",
      "¡"
    ],
    [
      "Ġo",
      "b"
    ],
    [
      "ac",
      "iÃ³n"
    ],
    [
      "ci",
      "al"
    ],
    [
      "ç",
      "°"
    ],
    [
      "åĽł",
      "çĤº"
    ],
    [
      "Ġb",
      "ack"
    ],
    [
      "ers",
      "on"
    ],
    [
      "i",
      "er"
    ],
    [
      "åĪ",
      "Ļ"
    ],
    [
      "ĠÐ",
      "¸"
    ],
    [
      "ä½Ĩ",
      "æĺ¯"
    ],
    [
      "æ¹",
      "ĸ"
    ],
    [
      "Ġg",
      "ood"
    ],
    [
      "è¨",
      "±"
    ],
    [
      "è©",
      "²"
    ],
    [
      "å¡",
      "Ķ"
    ],
    [
      "éģĭ",
      "åĭķ"
    ],
    [
      "è£",
      "¡"
    ],
    [
      "t",
      "e"
    ],
    [
      "ç",
      "Ĵ"
    ],
    [
      "ĠÐ",
      "²"
    ],
    [
      "ä¾",
      "Ŀ"
    ],
    [
      "èĪ",
      "ª"
    ],
    [
      "Ġh",
      "igh"
    ],
    [
      "æ¢",
      "Ŀ"
    ],
    [
      "éĤ",
      "¦"
    ],
    [
      "ç¡®",
      "å®ļ"
    ],
    [
      "Ġl",
      "ook"
    ],
    [
      "ä¸Ģ",
      "äºĽ"
    ],
    [
      "e",
      "e"
    ],
    [
      "f",
      "ul"
    ],
    [
      "ã",
      "ģ"
    ],
    [
      "Ġ",
      "ãĢĬ"
    ],
    [
      "Ġs",
      "er"
    ],
    [
      "äº",
      "Ĵ"
    ],
    [
      "æĬ",
      "Ĺ"
    ],
    [
      "åĶ",
      "Ĳ"
    ],
    [
      "Ð",
      "´"
    ],
    [
      "Ġm",
      "od"
    ],
    [
      "Ġre",
      "m"
    ],
    [
      "if",
      "e"
    ],
    [
      "Ġs",
      "ays"
    ],
    [
      "ä¸Ń",
      "å¤®"
    ],
    [
      "åħ¶",
      "ä¸Ń"
    ],
    [
      "æŃ",
      "¢"
    ],
    [
      "èĩª",
      "çĦ¶"
    ],
    [
      "è©",
      "±"
    ],
    [
      "æľī",
      "åħ³"
    ],
    [
      "æĢ",
      "İ"
    ],
    [
      "çķ",
      "¥"
    ],
    [
      "Ġre",
      "se"
    ],
    [
      "æ±",
      "ī"
    ],
    [
      "e",
      "x"
    ],
    [
      "è¼",
      "ĥ"
    ],
    [
      "ar",
      "g"
    ],
    [
      "ĠA",
      "nd"
    ],
    [
      "æİ",
      "Ĵ"
    ],
    [
      "ä»ĸ",
      "ä»¬"
    ],
    [
      "u",
      "es"
    ],
    [
      "ur",
      "ing"
    ],
    [
      "Ġ",
      "very"
    ],
    [
      "é",
      "Ĭ"
    ],
    [
      "ç¯",
      "Ģ"
    ],
    [
      ")",
      "ãĢģ"
    ],
    [
      "éĻ",
      "į"
    ],
    [
      "æİ",
      "§"
    ],
    [
      "èĪ",
      "¬"
    ],
    [
      "Ġex",
      "per"
    ],
    [
      "ivers",
      "ity"
    ],
    [
      "åī",
      "µ"
    ],
    [
      "6",
      "0"
    ],
    [
      "å",
      "ĺ"
    ],
    [
      "å¥",
      "ĩ"
    ],
    [
      "æĵ",
      "Ĭ"
    ],
    [
      "ĠN",
      "ew"
    ],
    [
      "ow",
      "er"
    ],
    [
      "Ġs",
      "erv"
    ],
    [
      "æĭ",
      "¿"
    ],
    [
      "Ġas",
      "s"
    ],
    [
      "t",
      "on"
    ],
    [
      "æŃ",
      "·"
    ],
    [
      "è",
      "Ĩ"
    ],
    [
      "åĪ",
      "ĩ"
    ],
    [
      "åľĭ",
      "å®¶"
    ],
    [
      "é",
      "¬"
    ],
    [
      "ç³»",
      "ç»Ł"
    ],
    [
      "åħ",
      "ļ"
    ],
    [
      "èµ",
      "°"
    ],
    [
      "he",
      "s"
    ],
    [
      "ĠF",
      "arm"
    ],
    [
      "åĿ",
      "ĩ"
    ],
    [
      "2",
      "3"
    ],
    [
      "éĻ",
      "ħ"
    ],
    [
      "ä»£",
      "è¡¨"
    ],
    [
      "åĨ",
      "³"
    ],
    [
      "è§",
      "Ĥ"
    ],
    [
      "Ġ",
      "Ñģ"
    ],
    [
      "âĢĿ",
      ","
    ],
    [
      "èĭ",
      "ı"
    ],
    [
      "ä¸»",
      "ä¹ī"
    ],
    [
      "äº",
      "¦"
    ],
    [
      "d",
      "ay"
    ],
    [
      "ä¹ĭ",
      "ä¸Ģ"
    ],
    [
      "n",
      "ing"
    ],
    [
      "ã",
      "ĥ"
    ],
    [
      "z",
      "h"
    ],
    [
      "Ġw",
      "ay"
    ],
    [
      "Ġl",
      "ong"
    ],
    [
      "çĶŁ",
      "æ´»"
    ],
    [
      "éĸĭ",
      "å§ĭ"
    ],
    [
      "Ġb",
      "r"
    ],
    [
      "é",
      "½"
    ],
    [
      "ic",
      "es"
    ],
    [
      "Ġin",
      "d"
    ],
    [
      "èĲ",
      "½"
    ],
    [
      "Ġs",
      "ystem"
    ],
    [
      "Ġper",
      "cent"
    ],
    [
      "éĺ",
      "Ł"
    ],
    [
      "éĢļ",
      "è¿ĩ"
    ],
    [
      "ie",
      "w"
    ],
    [
      ")",
      "."
    ],
    [
      "çĻ",
      "»"
    ],
    [
      "Ġsu",
      "b"
    ],
    [
      "åıĳ",
      "å±ķ"
    ],
    [
      "éļ",
      "Ĭ"
    ],
    [
      "æĬ",
      "¤"
    ],
    [
      "éĿ",
      "Ĵ"
    ],
    [
      "åŃ¸",
      "å®¶"
    ],
    [
      "æ",
      "ª"
    ],
    [
      "Ġst",
      "ud"
    ],
    [
      "åĲ",
      "«"
    ],
    [
      "åīį",
      "æıĲ"
    ],
    [
      "å¼",
      "º"
    ],
    [
      "Ġp",
      "h"
    ],
    [
      "éº",
      "¼"
    ],
    [
      "Ġo",
      "wn"
    ],
    [
      "å¸",
      "¶"
    ],
    [
      "f",
      "ore"
    ],
    [
      "Ġd",
      "on"
    ],
    [
      "âĢĿ",
      "ãĢĤ"
    ],
    [
      "ire",
      "ct"
    ],
    [
      "å¼",
      "·"
    ],
    [
      "oc",
      "i"
    ],
    [
      "ÃŃ",
      "a"
    ],
    [
      "ç¤¾",
      "ä¼ļ"
    ],
    [
      "çī",
      "Ļ"
    ],
    [
      "æł",
      "¸"
    ],
    [
      "åį",
      "ĥ"
    ],
    [
      "ãĢĤ",
      "("
    ],
    [
      "ir",
      "on"
    ],
    [
      "å»",
      "£"
    ],
    [
      "å°",
      "Ħ"
    ],
    [
      "è°",
      "ĥ"
    ],
    [
      "ãĢį",
      ","
    ],
    [
      "éĿŀ",
      "å¸¸"
    ],
    [
      "æ´",
      "Ľ"
    ],
    [
      "ĠA",
      "l"
    ],
    [
      "Ġprodu",
      "ction"
    ],
    [
      "as",
      "h"
    ],
    [
      "è¿",
      "°"
    ],
    [
      "åł",
      "±"
    ],
    [
      "äº",
      "¡"
    ],
    [
      "or",
      "k"
    ],
    [
      "Ġinc",
      "re"
    ],
    [
      "ub",
      "lic"
    ],
    [
      "é»",
      "ĳ"
    ],
    [
      "å¤",
      "į"
    ],
    [
      "å¸",
      "¦"
    ],
    [
      "ä»ĸ",
      "çļĦ"
    ],
    [
      "Ġev",
      "en"
    ],
    [
      "ere",
      "d"
    ],
    [
      "å¼",
      "ł"
    ],
    [
      "2",
      "1"
    ],
    [
      "éŁ",
      "ĵ"
    ],
    [
      "Ġac",
      "c"
    ],
    [
      "ç»ı",
      "æµİ"
    ],
    [
      "åĬ",
      "ĩ"
    ],
    [
      "è½",
      "¦"
    ],
    [
      "2",
      "4"
    ],
    [
      "æī",
      "¿"
    ],
    [
      "è´",
      "¥"
    ],
    [
      "çł",
      "´"
    ],
    [
      "å¸",
      "Ī"
    ],
    [
      "Ġfor",
      "m"
    ],
    [
      "olog",
      "y"
    ],
    [
      "u",
      "g"
    ],
    [
      "é",
      "Ħ"
    ],
    [
      "åº",
      "ķ"
    ],
    [
      "in",
      "es"
    ],
    [
      "Ġc",
      "he"
    ],
    [
      "è¿Ľ",
      "è¡Į"
    ],
    [
      "è¡",
      "Ģ"
    ],
    [
      "åĩ",
      "Ĩ"
    ],
    [
      "è§",
      "Ħ"
    ],
    [
      "Ġst",
      "art"
    ],
    [
      "Ġat",
      "t"
    ],
    [
      "å¡",
      "ŀ"
    ],
    [
      "çĪ",
      "¶"
    ],
    [
      "ä¹",
      "Ĳ"
    ],
    [
      "ç¼",
      "ĸ"
    ],
    [
      "ä½",
      "Ľ"
    ],
    [
      "è£",
      "½"
    ],
    [
      "åĸ",
      "ľ"
    ],
    [
      "çµ",
      "¦"
    ],
    [
      "Ġimport",
      "ant"
    ],
    [
      "u",
      "res"
    ],
    [
      "å»º",
      "ç«ĭ"
    ],
    [
      "çĶ",
      "°"
    ],
    [
      "19",
      "7"
    ],
    [
      "è£",
      "Ŀ"
    ],
    [
      "çĵ",
      "¦"
    ],
    [
      "re",
      "ad"
    ],
    [
      "ä»",
      "į"
    ],
    [
      "ion",
      "al"
    ],
    [
      "t",
      "y"
    ],
    [
      "ç´",
      "¢"
    ],
    [
      "Ġ",
      "âĢĶ"
    ],
    [
      "in",
      "a"
    ],
    [
      "åľ°",
      "åĮº"
    ],
    [
      "ĠR",
      "e"
    ],
    [
      "er",
      "al"
    ],
    [
      "Ġre",
      "qu"
    ],
    [
      "i",
      "ous"
    ],
    [
      "w",
      "ard"
    ],
    [
      "Ġ",
      "ra"
    ],
    [
      "re",
      "n"
    ],
    [
      "Ġp",
      "ol"
    ],
    [
      "é¤",
      "¨"
    ],
    [
      "Ġsh",
      "ould"
    ],
    [
      "æ",
      "¤"
    ],
    [
      "Ġs",
      "im"
    ],
    [
      "ĠY",
      "ou"
    ],
    [
      "ç§",
      "»"
    ],
    [
      "æĸ¹",
      "å¼ı"
    ],
    [
      "Ġth",
      "ose"
    ],
    [
      "å",
      "´"
    ],
    [
      "i",
      "x"
    ],
    [
      "Ã¡",
      "s"
    ],
    [
      "Ġagricult",
      "ure"
    ],
    [
      "Ġa",
      "v"
    ],
    [
      "å°",
      "Ī"
    ],
    [
      "æ¨",
      "Ļ"
    ],
    [
      "å¯",
      "Į"
    ],
    [
      "Ġr",
      "ight"
    ],
    [
      "h",
      "ip"
    ],
    [
      "åĲ",
      "ī"
    ],
    [
      "Ġres",
      "p"
    ],
    [
      "m",
      "an"
    ],
    [
      "ä»»",
      "ä½ķ"
    ],
    [
      "è®",
      "¸"
    ],
    [
      "iv",
      "es"
    ],
    [
      "Ġsupp",
      "ort"
    ],
    [
      "a",
      "z"
    ],
    [
      "Ġf",
      "in"
    ],
    [
      "èĭ",
      "¥"
    ],
    [
      "a",
      "x"
    ],
    [
      "y",
      "s"
    ],
    [
      "Ġin",
      "form"
    ],
    [
      "ad",
      "a"
    ],
    [
      "é»",
      "¨"
    ],
    [
      "con",
      "om"
    ],
    [
      "éļ",
      "Ľ"
    ],
    [
      "è²",
      "»"
    ],
    [
      "Ġindust",
      "ry"
    ],
    [
      "åĵ",
      "¥"
    ],
    [
      "b",
      "e"
    ],
    [
      "id",
      "ad"
    ],
    [
      "åĨ",
      "²"
    ],
    [
      "ä¸",
      "ģ"
    ],
    [
      "t",
      "ing"
    ],
    [
      "Ġsm",
      "all"
    ],
    [
      "è¦",
      "ª"
    ],
    [
      "ä¸ĸ",
      "ç´Ģ"
    ],
    [
      "èª",
      "¿"
    ],
    [
      "è",
      "Ľ"
    ],
    [
      "Ġbe",
      "ing"
    ],
    [
      "ver",
      "n"
    ],
    [
      "æķĻ",
      "èĤ²"
    ],
    [
      "èĭ±",
      "åľĭ"
    ],
    [
      "çļ",
      "®"
    ],
    [
      "ä¹Ł",
      "æĺ¯"
    ],
    [
      "æľ",
      "¨"
    ],
    [
      "Ġc",
      "ar"
    ],
    [
      "åī",
      "¯"
    ],
    [
      "çĳ",
      "ŀ"
    ],
    [
      "æĪĲ",
      "åĬŁ"
    ],
    [
      "éĺ",
      "³"
    ],
    [
      "Ðµ",
      "Ð½"
    ],
    [
      "ĠA",
      "n"
    ],
    [
      "Ġbus",
      "iness"
    ],
    [
      "åıª",
      "æľī"
    ],
    [
      "Ġdiff",
      "ere"
    ],
    [
      "è«",
      "ĭ"
    ],
    [
      "Ġf",
      "un"
    ],
    [
      "al",
      "e"
    ],
    [
      "æ¯",
      "Ĵ"
    ],
    [
      "é",
      "Ĳ"
    ],
    [
      "æ³",
      "°"
    ],
    [
      "äº",
      "ī"
    ],
    [
      "æĪĲ",
      "çĤº"
    ],
    [
      "å¼Ģ",
      "å§ĭ"
    ],
    [
      "Ġ",
      "çļĦ"
    ],
    [
      "è¡¨",
      "ç¤º"
    ],
    [
      "p",
      "r"
    ],
    [
      "iz",
      "e"
    ],
    [
      "v",
      "iron"
    ],
    [
      "el",
      "f"
    ],
    [
      "ĠF",
      "or"
    ],
    [
      "Ġa",
      "fter"
    ],
    [
      "ç´",
      "ļ"
    ],
    [
      "ä¾ĭ",
      "å¦Ĥ"
    ],
    [
      "c",
      "k"
    ],
    [
      "å¤§",
      "åŃ¸"
    ],
    [
      "ä¸",
      "ĵ"
    ],
    [
      "ä»ĸ",
      "åĢĳ"
    ],
    [
      "åıª",
      "èĥ½"
    ],
    [
      "å",
      "ª"
    ],
    [
      "æī",
      "¾"
    ],
    [
      "é",
      "¥"
    ],
    [
      "æĪĲ",
      "ä¸º"
    ],
    [
      "åħ",
      "Ĵ"
    ],
    [
      "çĶŁ",
      "çī©"
    ],
    [
      "at",
      "her"
    ],
    [
      "æĸ¹",
      "éĿ¢"
    ],
    [
      "Ġcomm",
      "un"
    ],
    [
      "æĮ",
      "ĳ"
    ],
    [
      "äºº",
      "çī©"
    ],
    [
      "Ġthe",
      "n"
    ],
    [
      "ç¥",
      "ĸ"
    ],
    [
      "ç®¡",
      "çĲĨ"
    ],
    [
      "å¤",
      "ı"
    ],
    [
      "åĿ",
      "¦"
    ],
    [
      "çļĦ",
      "æĺ¯"
    ],
    [
      "ĠAg",
      "ricult"
    ],
    [
      "é£",
      "İ"
    ],
    [
      "et",
      "y"
    ],
    [
      "æ°",
      "ı"
    ],
    [
      "åĪ",
      "Ľ"
    ],
    [
      "æĮ",
      "ī"
    ],
    [
      "æī",
      "ĺ"
    ],
    [
      "åŃĺ",
      "åľ¨"
    ],
    [
      "è¯",
      "Ŀ"
    ],
    [
      "è¿Ļ",
      "äºĽ"
    ],
    [
      "ãĢĤ",
      "âĢĿ"
    ],
    [
      "è½",
      "ī"
    ],
    [
      "åĲ",
      "Ľ"
    ],
    [
      "Ġl",
      "o"
    ],
    [
      "å®",
      "³"
    ],
    [
      "e",
      "b"
    ],
    [
      "as",
      "on"
    ],
    [
      "æ¬",
      "§"
    ],
    [
      "å°",
      "ģ"
    ],
    [
      "éª",
      "Į"
    ],
    [
      "å¤",
      "´"
    ],
    [
      "åº",
      "§"
    ],
    [
      "éĽ",
      "¢"
    ],
    [
      "è¾",
      "ĥ"
    ],
    [
      "in",
      "ce"
    ],
    [
      "æ±",
      "º"
    ],
    [
      "éĨ",
      "«"
    ],
    [
      "at",
      "a"
    ],
    [
      "æī",
      "¹"
    ],
    [
      "Ġle",
      "ad"
    ],
    [
      "ä¸Ģ",
      "èĪ¬"
    ],
    [
      "åĤ",
      "Ļ"
    ],
    [
      "åĭ",
      "Ĵ"
    ],
    [
      "u",
      "p"
    ],
    [
      "ç»",
      "Ļ"
    ],
    [
      "åĪ",
      "Ĵ"
    ],
    [
      "ic",
      "ally"
    ],
    [
      "ä¼",
      "¼"
    ],
    [
      "ĠÐ",
      "½"
    ],
    [
      "4",
      "0"
    ],
    [
      "æ",
      "Ĩ"
    ],
    [
      "éĢĻ",
      "åĢĭ"
    ],
    [
      "Ġcont",
      "in"
    ],
    [
      "Ġs",
      "ol"
    ],
    [
      "Ġ",
      "ç¬¬"
    ],
    [
      "æ²",
      "¹"
    ],
    [
      "r",
      "ies"
    ],
    [
      "ä»",
      "ĭ"
    ],
    [
      "æĸ¹",
      "æ³ķ"
    ],
    [
      "Ġn",
      "um"
    ],
    [
      "Ġex",
      "t"
    ],
    [
      "ort",
      "h"
    ],
    [
      "Ġv",
      "al"
    ],
    [
      "viron",
      "ment"
    ],
    [
      "çĪ",
      "±"
    ],
    [
      "èĩ",
      "º"
    ],
    [
      "éĻ",
      "³"
    ],
    [
      "çļĩ",
      "å¸Ŀ"
    ],
    [
      "o",
      "ol"
    ],
    [
      "Ġs",
      "ur"
    ],
    [
      "åĬ",
      "ī"
    ],
    [
      "æĿ",
      "Ĳ"
    ],
    [
      "Ġ19",
      "6"
    ],
    [
      "ç³»",
      "çµ±"
    ],
    [
      "c",
      "y"
    ],
    [
      "çĪ",
      "Ń"
    ],
    [
      "åĬŁ",
      "èĥ½"
    ],
    [
      "w",
      "w"
    ],
    [
      "ä»",
      "·"
    ],
    [
      "Ġ",
      "ed"
    ],
    [
      "çĽ",
      "Ł"
    ],
    [
      "å¯",
      "Ł"
    ],
    [
      "èİ",
      "·"
    ],
    [
      "Ġl",
      "ast"
    ],
    [
      "å©",
      "ļ"
    ],
    [
      "v",
      "en"
    ],
    [
      "at",
      "h"
    ],
    [
      "æĬĢ",
      "æľ¯"
    ],
    [
      "åį",
      "ĩ"
    ],
    [
      "ĠU",
      "S"
    ],
    [
      "Ġtr",
      "ans"
    ],
    [
      "éĻ",
      "Ħ"
    ],
    [
      "æİ¥",
      "åıĹ"
    ],
    [
      "Ð",
      "·"
    ],
    [
      "Ġd",
      "id"
    ],
    [
      "ĠR",
      "es"
    ],
    [
      "Ġp",
      "ric"
    ],
    [
      "éĹ",
      "»"
    ],
    [
      "c",
      "l"
    ],
    [
      "Ġl",
      "as"
    ],
    [
      "Ġte",
      "chn"
    ],
    [
      "éĽ",
      "·"
    ],
    [
      "çĿ",
      "£"
    ],
    [
      "é¢",
      "Ħ"
    ],
    [
      "åĥ",
      "¹"
    ],
    [
      "rou",
      "p"
    ],
    [
      "èĹ",
      "ı"
    ],
    [
      "Ġm",
      "ade"
    ],
    [
      "2",
      "8"
    ],
    [
      "Ġp",
      "erson"
    ],
    [
      "å¥",
      "§"
    ],
    [
      "å·¥",
      "ç¨ĭ"
    ],
    [
      "el",
      "s"
    ],
    [
      "çŃ",
      "ĸ"
    ],
    [
      "è´",
      "¹"
    ],
    [
      "éĥ½",
      "æĺ¯"
    ],
    [
      "è·",
      "Ł"
    ],
    [
      "ä½ľ",
      "åĵģ"
    ],
    [
      "Ġm",
      "on"
    ],
    [
      "åĦ",
      "ª"
    ],
    [
      "æĵ",
      "ļ"
    ],
    [
      "Ġrese",
      "arch"
    ],
    [
      "e",
      "k"
    ],
    [
      "ce",
      "pt"
    ],
    [
      "èŃ",
      "ī"
    ],
    [
      "å±",
      "¬"
    ],
    [
      "è®¤",
      "ä¸º"
    ],
    [
      "Ġ",
      "ä¸Ń"
    ],
    [
      "ul",
      "l"
    ],
    [
      "éł",
      "ħ"
    ],
    [
      "Ġm",
      "ed"
    ],
    [
      "Ġpro",
      "cess"
    ],
    [
      "Ġb",
      "o"
    ],
    [
      "èĹ",
      "Ŀ"
    ],
    [
      "Ġt",
      "ake"
    ],
    [
      "æĵ",
      "į"
    ],
    [
      "ãĢĭ",
      ","
    ],
    [
      "ĠA",
      "r"
    ],
    [
      "ot",
      "her"
    ],
    [
      "ãĢĭ",
      "("
    ],
    [
      "Ġin",
      "st"
    ],
    [
      "u",
      "ally"
    ],
    [
      "éĢ",
      "ģ"
    ],
    [
      "Ġagricult",
      "ural"
    ],
    [
      "èĢ",
      "¶"
    ],
    [
      "Ġp",
      "ued"
    ],
    [
      "æŃ",
      "Ĳ"
    ],
    [
      "n",
      "er"
    ],
    [
      "r",
      "al"
    ],
    [
      "Ġm",
      "illion"
    ],
    [
      "æĻ",
      "º"
    ],
    [
      "Ġc",
      "ent"
    ],
    [
      "åŁ",
      "ĥ"
    ],
    [
      "ä¿¡",
      "æģ¯"
    ],
    [
      "Ġd",
      "own"
    ],
    [
      "æģ",
      "©"
    ],
    [
      "e",
      "ver"
    ],
    [
      "è¦",
      "ı"
    ],
    [
      "Ġspe",
      "c"
    ],
    [
      "a",
      "h"
    ],
    [
      "éħĴ",
      "åºĹ"
    ],
    [
      "Ð¾Ð",
      "²"
    ],
    [
      "Ġc",
      "ur"
    ],
    [
      "id",
      "es"
    ],
    [
      "éĻ",
      "¸"
    ],
    [
      "ect",
      "ed"
    ],
    [
      "Ġ",
      "&"
    ],
    [
      "Ġb",
      "el"
    ],
    [
      "2",
      "7"
    ],
    [
      "çº",
      "³"
    ],
    [
      "å®",
      "ĭ"
    ],
    [
      "Ġin",
      "s"
    ],
    [
      "è¿",
      "ŀ"
    ],
    [
      "åĲ",
      "¦"
    ],
    [
      "Ġf",
      "ind"
    ],
    [
      "ç»",
      "Ĩ"
    ],
    [
      "å¯",
      "«"
    ],
    [
      "Ġ",
      "ve"
    ],
    [
      "ĠI",
      "f"
    ],
    [
      "ÑĢ",
      "Ð°"
    ],
    [
      "åĽ",
      "¢"
    ],
    [
      "Ġre",
      "t"
    ],
    [
      "ç§ĳ",
      "åŃ¦"
    ],
    [
      "Ġhe",
      "alth"
    ],
    [
      "åı",
      "«"
    ],
    [
      "Ġre",
      "al"
    ],
    [
      "Ġst",
      "r"
    ],
    [
      "èģ",
      "²"
    ],
    [
      "åĽł",
      "ä¸º"
    ],
    [
      "çİ",
      "¯"
    ],
    [
      "ã",
      "Ĥ"
    ],
    [
      "Ġg",
      "u"
    ],
    [
      "v",
      "ed"
    ],
    [
      "æĪĲ",
      "åĵ¡"
    ],
    [
      "çľ",
      "¾"
    ],
    [
      "ç·",
      "¨"
    ],
    [
      "çĶ",
      "ļ"
    ],
    [
      "en",
      "g"
    ],
    [
      "å¹",
      "¾"
    ],
    [
      "å¹´",
      "çļĦ"
    ],
    [
      "åĪ",
      "¤"
    ],
    [
      "åĸ",
      "Ħ"
    ],
    [
      "èİ",
      "«"
    ],
    [
      "Ġfam",
      "ily"
    ],
    [
      "å¸",
      "Ń"
    ],
    [
      "éĩ",
      "Ĭ"
    ],
    [
      "Ġm",
      "em"
    ],
    [
      "Ġg",
      "l"
    ],
    [
      "ç´",
      "į"
    ],
    [
      "åĲ",
      "ĥ"
    ],
    [
      "ĠThe",
      "y"
    ],
    [
      "å³",
      "¶"
    ],
    [
      "å§",
      "Ĩ"
    ],
    [
      "çļĦ",
      "åľ°"
    ],
    [
      "ar",
      "ly"
    ],
    [
      "åĲ",
      "Ĺ"
    ],
    [
      "éĮ",
      "Ħ"
    ],
    [
      "in",
      "s"
    ],
    [
      "æ°",
      "¸"
    ],
    [
      "Ġad",
      "v"
    ],
    [
      "Ġ",
      "i"
    ],
    [
      "è®",
      "©"
    ],
    [
      "éļ",
      "¨"
    ],
    [
      "èĺ",
      "ĩ"
    ],
    [
      "æ£",
      "®"
    ],
    [
      "å¾Ī",
      "å¤ļ"
    ],
    [
      "åĮĹ",
      "äº¬"
    ],
    [
      "Ġo",
      "p"
    ],
    [
      "éĽĨ",
      "åĲĪ"
    ],
    [
      "é¡",
      "¹"
    ],
    [
      "åİĨ",
      "åı²"
    ],
    [
      "Ġa",
      "round"
    ],
    [
      "Ġc",
      "all"
    ],
    [
      "Ġm",
      "in"
    ],
    [
      "é",
      "¼"
    ],
    [
      "äº",
      "«"
    ],
    [
      "Ġd",
      "ay"
    ],
    [
      "Ġpro",
      "f"
    ],
    [
      "ĠA",
      "d"
    ],
    [
      "ç¦",
      "»"
    ],
    [
      "Ġres",
      "ult"
    ],
    [
      "çį",
      "²"
    ],
    [
      "è½",
      "¬"
    ],
    [
      "c",
      "c"
    ],
    [
      "Ġc",
      "orn"
    ],
    [
      "æł¹",
      "æį®"
    ],
    [
      "2",
      "9"
    ],
    [
      "æŁ",
      "Ĳ"
    ],
    [
      "l",
      "ine"
    ],
    [
      "èĪ",
      "ī"
    ],
    [
      "æ´",
      "ĭ"
    ],
    [
      "è£",
      "ħ"
    ],
    [
      "Ġbe",
      "fore"
    ],
    [
      "Ġen",
      "d"
    ],
    [
      "æ¬",
      "¾"
    ],
    [
      "éĤ",
      "Ĭ"
    ],
    [
      "Ġs",
      "ign"
    ],
    [
      "Ġpro",
      "ject"
    ],
    [
      "ĠE",
      "x"
    ],
    [
      "ist",
      "s"
    ],
    [
      "è",
      "ĵ"
    ],
    [
      "èŃ",
      "·"
    ],
    [
      "åį",
      "«"
    ],
    [
      "et",
      "s"
    ],
    [
      "ou",
      "se"
    ],
    [
      "Ġth",
      "ink"
    ],
    [
      "Ġde",
      "f"
    ],
    [
      "çº",
      "Į"
    ],
    [
      "æŃ£",
      "å¼ı"
    ],
    [
      "Ġdo",
      "es"
    ],
    [
      "ĠD",
      "e"
    ],
    [
      "c",
      "o"
    ],
    [
      "re",
      "nt"
    ],
    [
      "Ġt",
      "ra"
    ],
    [
      "è¾",
      "¹"
    ],
    [
      "ble",
      "m"
    ],
    [
      "Ġwh",
      "ile"
    ],
    [
      "æĥ",
      "ł"
    ],
    [
      "2",
      "6"
    ],
    [
      "t",
      "ic"
    ],
    [
      "éĻ",
      "½"
    ],
    [
      "an",
      "k"
    ],
    [
      "ĠS",
      "h"
    ],
    [
      "Ġpl",
      "ay"
    ],
    [
      "èĩª",
      "çĶ±"
    ],
    [
      "Ġ",
      ":"
    ],
    [
      "W",
      "e"
    ],
    [
      "çľ",
      "¼"
    ],
    [
      "Ġf",
      "ound"
    ],
    [
      "å§Ķ",
      "åĳĺ"
    ],
    [
      "åĦ",
      "¿"
    ],
    [
      "ĠI",
      "nt"
    ],
    [
      "Ġst",
      "ill"
    ],
    [
      "èªį",
      "çĤº"
    ],
    [
      "ĠUn",
      "iversity"
    ],
    [
      "Ġp",
      "ot"
    ],
    [
      "Ġh",
      "and"
    ],
    [
      "Ġe",
      "conom"
    ],
    [
      "åĩ",
      "»"
    ],
    [
      "19",
      "5"
    ],
    [
      "æ®",
      "º"
    ],
    [
      "åı",
      "³"
    ],
    [
      "ot",
      "e"
    ],
    [
      "Ã",
      "±"
    ],
    [
      "å¤",
      "ĩ"
    ],
    [
      "æ¯",
      "Ľ"
    ],
    [
      "çī©",
      "çĲĨ"
    ],
    [
      "åĬ",
      "ŀ"
    ],
    [
      "Ġhe",
      "re"
    ],
    [
      "t",
      "en"
    ],
    [
      "Ġ19",
      "4"
    ],
    [
      "re",
      "en"
    ],
    [
      "æİ",
      "Ī"
    ],
    [
      "ç¥",
      "¨"
    ],
    [
      "åĽ½",
      "éĻħ"
    ],
    [
      "æĢİ",
      "ä¹Ī"
    ],
    [
      "Ġd",
      "et"
    ],
    [
      "å·",
      "®"
    ],
    [
      "æ§",
      "ĭ"
    ],
    [
      "19",
      "6"
    ],
    [
      "Ġgo",
      "ing"
    ],
    [
      "çĴ",
      "°"
    ],
    [
      "ä¼",
      "ģ"
    ],
    [
      "ç«",
      "¯"
    ],
    [
      "æĻĤ",
      "éĸĵ"
    ],
    [
      "il",
      "iz"
    ],
    [
      "ar",
      "ge"
    ],
    [
      "Ġb",
      "est"
    ],
    [
      "Ġloc",
      "al"
    ],
    [
      "Ġf",
      "act"
    ],
    [
      "éĢ",
      "Ģ"
    ],
    [
      "èĥ",
      "ŀ"
    ],
    [
      "åĳ",
      "³"
    ],
    [
      "å¹",
      "²"
    ],
    [
      "Ġp",
      "or"
    ],
    [
      "al",
      "k"
    ],
    [
      "Ġis",
      "s"
    ],
    [
      "æĺ",
      "¾"
    ],
    [
      "å·",
      "¦"
    ],
    [
      "éĢļ",
      "å¸¸"
    ],
    [
      "Ġc",
      "ost"
    ],
    [
      "t",
      "s"
    ],
    [
      "Ġp",
      "op"
    ],
    [
      "Ġre",
      "p"
    ],
    [
      "åĩ",
      "ł"
    ],
    [
      "åķı",
      "é¡Į"
    ],
    [
      "éļ",
      "ı"
    ],
    [
      "çį",
      "¨"
    ],
    [
      "Ġcons",
      "um"
    ],
    [
      "Ġd",
      "irect"
    ],
    [
      "a",
      "ve"
    ],
    [
      "çī",
      "Į"
    ],
    [
      "è¦",
      "º"
    ],
    [
      "p",
      "le"
    ],
    [
      "Ġe",
      "ach"
    ],
    [
      "ä½ľ",
      "çĶ¨"
    ],
    [
      "äºĭ",
      "ä»¶"
    ],
    [
      "ag",
      "es"
    ],
    [
      "å¢ŀ",
      "åĬł"
    ],
    [
      "a",
      "w"
    ],
    [
      "åĲ",
      "¸"
    ],
    [
      "ãĢį",
      "ãĢĤ"
    ],
    [
      "éĢ²",
      "è¡Į"
    ],
    [
      "Ġag",
      "ain"
    ],
    [
      "ĠÐ",
      "¾"
    ],
    [
      "ĠS",
      "e"
    ],
    [
      "åģ",
      "ľ"
    ],
    [
      "Ġcrop",
      "s"
    ],
    [
      "Ġse",
      "ed"
    ],
    [
      ":",
      "âĢľ"
    ],
    [
      "Ġde",
      "m"
    ],
    [
      "ĠC",
      "al"
    ],
    [
      "n",
      "ce"
    ],
    [
      "ä¸",
      "¹"
    ],
    [
      "éĻ",
      "Ĩ"
    ],
    [
      "Ġde",
      "p"
    ],
    [
      "Ġpro",
      "blem"
    ],
    [
      "æľį",
      "åĬ¡"
    ],
    [
      "ic",
      "an"
    ],
    [
      "æĿ",
      "ĳ"
    ],
    [
      "ä¸ĸ",
      "çºª"
    ],
    [
      "is",
      "m"
    ],
    [
      "æ¦",
      "Ĥ"
    ],
    [
      "éŁĵ",
      "åľĭ"
    ],
    [
      "Ġo",
      "per"
    ],
    [
      "æĻ",
      "ļ"
    ],
    [
      "æĺ",
      "¥"
    ],
    [
      "ä¹",
      "ħ"
    ],
    [
      "Ġprodu",
      "c"
    ],
    [
      "Ġdiffere",
      "nt"
    ],
    [
      "éŁ",
      "¿"
    ],
    [
      "èĢĮ",
      "ä¸Ķ"
    ],
    [
      "åĵ",
      "į"
    ],
    [
      "èĩªå·±",
      "çļĦ"
    ],
    [
      "we",
      "en"
    ],
    [
      "åľ",
      "Ĵ"
    ],
    [
      "åŃ",
      "£"
    ],
    [
      "çĽ",
      "Ĭ"
    ],
    [
      "Ġ",
      "âĢ"
    ],
    [
      "Ġth",
      "ree"
    ],
    [
      "ut",
      "ion"
    ],
    [
      "åį",
      "»"
    ],
    [
      "åī",
      "§"
    ],
    [
      "ak",
      "es"
    ],
    [
      "æĭ",
      "į"
    ],
    [
      "è¯",
      "į"
    ],
    [
      "éĽ",
      "ħ"
    ],
    [
      "åĪ°",
      "äºĨ"
    ],
    [
      "çĨ",
      "±"
    ],
    [
      "æ¾",
      "³"
    ],
    [
      "Ġs",
      "et"
    ],
    [
      "åĨ²",
      "çªģ"
    ],
    [
      "Ġd",
      "ist"
    ],
    [
      "é¦",
      "Ĩ"
    ],
    [
      "çĽ®",
      "åīį"
    ],
    [
      "D",
      "A"
    ],
    [
      "æĪĸ",
      "èĢħ"
    ],
    [
      "ç¢",
      "º"
    ],
    [
      "åº",
      "Ń"
    ],
    [
      "è¨",
      "Ĭ"
    ],
    [
      "ĠÐ",
      "º"
    ],
    [
      "æĸĩ",
      "ä»¶"
    ],
    [
      "Ġh",
      "im"
    ],
    [
      "ĠH",
      "ow"
    ],
    [
      "èŃ",
      "¦"
    ],
    [
      "æŃĮ",
      "æīĭ"
    ],
    [
      "éĽ",
      "Ħ"
    ],
    [
      "èģ",
      "ĸ"
    ],
    [
      "é¾",
      "į"
    ],
    [
      "ä¸",
      "¾"
    ],
    [
      "Ġs",
      "al"
    ],
    [
      "ic",
      "t"
    ],
    [
      "ĠP",
      "l"
    ],
    [
      "ros",
      "s"
    ],
    [
      "ç»",
      "ĩ"
    ],
    [
      "Ġ19",
      "5"
    ],
    [
      "å¤±",
      "è´¥"
    ],
    [
      "åħ·",
      "æľī"
    ],
    [
      "çŁ",
      "Ń"
    ],
    [
      "Ġgo",
      "vern"
    ],
    [
      "æľ",
      "±"
    ],
    [
      "æĪ",
      "²"
    ],
    [
      "19",
      "4"
    ],
    [
      "æ°ĳ",
      "æĹı"
    ],
    [
      "è¦ģ",
      "æ±Ĥ"
    ],
    [
      "o",
      "h"
    ],
    [
      "éĽ»",
      "å½±"
    ],
    [
      "è",
      "ŀ"
    ],
    [
      "åħ",
      "ħ"
    ],
    [
      "éĢł",
      "æĪĲ"
    ],
    [
      "Ñ",
      "ħ"
    ],
    [
      "Ġpl",
      "an"
    ],
    [
      "Ġ1",
      "2"
    ],
    [
      "éļ",
      "Ĩ"
    ],
    [
      "Ġproduct",
      "s"
    ],
    [
      "Ġin",
      "f"
    ],
    [
      "å·",
      "Ŀ"
    ],
    [
      "is",
      "hed"
    ],
    [
      "Ð",
      "¿"
    ],
    [
      "Ġb",
      "oth"
    ],
    [
      "ä½",
      "³"
    ],
    [
      "Ã",
      "º"
    ],
    [
      "Ġf",
      "ew"
    ],
    [
      "Ġg",
      "reat"
    ],
    [
      "ĠI",
      "nd"
    ],
    [
      "Ðµ",
      "ÑĤ"
    ],
    [
      "é¤",
      "Ĳ"
    ],
    [
      "çĭ",
      "¬"
    ],
    [
      "Ġa",
      "ut"
    ],
    [
      "åį°",
      "åº¦"
    ],
    [
      "u",
      "nt"
    ],
    [
      "Ġinform",
      "ation"
    ],
    [
      "è",
      "Ķ"
    ],
    [
      "çļĦ",
      "å¤§"
    ],
    [
      "ç¬",
      "¦"
    ],
    [
      "Ġv",
      "is"
    ],
    [
      "Ġs",
      "ay"
    ],
    [
      "å¼",
      "Ł"
    ],
    [
      "å®ī",
      "åħ¨"
    ],
    [
      "id",
      "a"
    ],
    [
      "åĽ½",
      "çİĭ"
    ],
    [
      "éĩĮ",
      "çļĦ"
    ],
    [
      "Ġcont",
      "ro"
    ],
    [
      "è¯",
      "·"
    ],
    [
      "è¯",
      "Ĩ"
    ],
    [
      "èī",
      "¾"
    ],
    [
      "ä¸¤",
      "ä¸ª"
    ],
    [
      "Ġinclud",
      "ing"
    ],
    [
      "å¾",
      "ģ"
    ],
    [
      "å»",
      "¶"
    ],
    [
      "qu",
      "e"
    ],
    [
      "éĿ©",
      "åĳ½"
    ],
    [
      "æĮĳ",
      "æĪĺ"
    ],
    [
      "Ġre",
      "f"
    ],
    [
      "éĩ",
      "ĩ"
    ],
    [
      "å¤§",
      "åĪ©"
    ],
    [
      "im",
      "es"
    ],
    [
      "æĿ",
      "¿"
    ],
    [
      "éĽ»",
      "è¦ĸ"
    ],
    [
      "è¡Į",
      "æĶ¿"
    ],
    [
      "èī",
      "¯"
    ],
    [
      "è¿Ļ",
      "æĺ¯"
    ],
    [
      "l",
      "ed"
    ],
    [
      "çĭ",
      "Ģ"
    ],
    [
      "åħ±åĴĮ",
      "åĽ½"
    ],
    [
      "s",
      "c"
    ],
    [
      "ut",
      "e"
    ],
    [
      "}",
      "-"
    ],
    [
      "éĢ",
      "ı"
    ],
    [
      "Ġf",
      "ield"
    ],
    [
      "Ġcom",
      "pl"
    ],
    [
      "an",
      "c"
    ],
    [
      "ç´",
      "°"
    ],
    [
      "ç",
      "£"
    ],
    [
      "æĢ",
      "ģ"
    ],
    [
      "ou",
      "th"
    ],
    [
      "åĨ",
      "Ļ"
    ],
    [
      "Ġan",
      "im"
    ],
    [
      "çį",
      "İ"
    ],
    [
      "æľ",
      "«"
    ],
    [
      "Ġex",
      "pl"
    ],
    [
      "Ġs",
      "om"
    ],
    [
      "è¿",
      "½"
    ],
    [
      "éģ",
      "©"
    ],
    [
      "æ¿",
      "Ł"
    ],
    [
      "Ġbet",
      "ween"
    ],
    [
      "Ġre",
      "port"
    ],
    [
      "æŀ",
      "ģ"
    ],
    [
      "äº",
      "²"
    ],
    [
      "å",
      "ļ"
    ],
    [
      "ĠF",
      "ood"
    ],
    [
      "air",
      "y"
    ],
    [
      "Ġ",
      "åıĤ"
    ],
    [
      "åŁº",
      "æľ¬"
    ],
    [
      "ä¿Ŀ",
      "æĬ¤"
    ],
    [
      "Ġcomp",
      "any"
    ],
    [
      "åľĺ",
      "é«Ķ"
    ],
    [
      ":",
      "ãĢĮ"
    ],
    [
      "v",
      "ing"
    ],
    [
      "Ġs",
      "ame"
    ],
    [
      "g",
      "y"
    ],
    [
      "å¹´",
      "ä»£"
    ],
    [
      "æħ",
      "ĭ"
    ],
    [
      "b",
      "ers"
    ],
    [
      "æ»",
      "¿"
    ],
    [
      "Ġpart",
      "ic"
    ],
    [
      "Ġl",
      "ot"
    ],
    [
      "çĻ¼",
      "å±ķ"
    ],
    [
      "ç°",
      "¡"
    ],
    [
      "Ġp",
      "ublic"
    ],
    [
      "æµ",
      "ĭ"
    ],
    [
      "é¡",
      "¯"
    ],
    [
      "ç¤¾",
      "æľĥ"
    ],
    [
      "ar",
      "s"
    ],
    [
      "é»",
      "ĥ"
    ],
    [
      "åģ",
      "¥"
    ],
    [
      "v",
      "est"
    ],
    [
      "æľ",
      "Ĺ"
    ],
    [
      "Ġso",
      "il"
    ],
    [
      "åĵ",
      "²"
    ],
    [
      "ä¸į",
      "è¦ģ"
    ],
    [
      "Ġg",
      "roup"
    ],
    [
      "Ġc",
      "a"
    ],
    [
      "è»",
      "Ł"
    ],
    [
      "iz",
      "ed"
    ],
    [
      "éĽ",
      "£"
    ],
    [
      "æ¼",
      "«"
    ],
    [
      "æ¤",
      "į"
    ],
    [
      "Ġpro",
      "t"
    ],
    [
      "Ġen",
      "vironment"
    ],
    [
      "å½¢",
      "æĪĲ"
    ],
    [
      "è¿",
      "ª"
    ],
    [
      "id",
      "er"
    ],
    [
      "æİ§",
      "åĪ¶"
    ],
    [
      "æĹ¶",
      "éĹ´"
    ],
    [
      "Ġ",
      "*"
    ],
    [
      "ect",
      "ion"
    ],
    [
      "Ġb",
      "i"
    ],
    [
      "éĢĻ",
      "äºĽ"
    ],
    [
      "al",
      "ity"
    ],
    [
      "Ġus",
      "ing"
    ],
    [
      "Ġ",
      "0"
    ],
    [
      "åŃ¦",
      "å®¶"
    ],
    [
      "at",
      "ure"
    ],
    [
      "åł",
      "Ĥ"
    ],
    [
      "çĥ",
      "Ī"
    ],
    [
      "åĨ",
      "·"
    ],
    [
      "Ġm",
      "il"
    ],
    [
      "Ġm",
      "ain"
    ],
    [
      "æľį",
      "åĭĻ"
    ],
    [
      "ĠThe",
      "re"
    ],
    [
      "iv",
      "ing"
    ],
    [
      "æº",
      "ĸ"
    ],
    [
      "å®",
      "Ī"
    ],
    [
      "æĿ",
      "Ł"
    ],
    [
      "èĮ",
      "ĥ"
    ],
    [
      "ç¿",
      "»"
    ],
    [
      "èĽ",
      "ĭ"
    ],
    [
      "ç§",
      "¦"
    ],
    [
      "ore",
      "s"
    ],
    [
      "è¯",
      "ķ"
    ],
    [
      "èĢ",
      "³"
    ],
    [
      "ç§",
      "¯"
    ],
    [
      "äºĨ",
      "ä¸Ģ"
    ],
    [
      ")",
      ":"
    ],
    [
      "Ġd",
      "uring"
    ],
    [
      "as",
      "es"
    ],
    [
      "å²",
      "Ľ"
    ],
    [
      "Ġ",
      "Â"
    ],
    [
      "é»",
      "Ħ"
    ],
    [
      "èĥ½",
      "å¤"
    ],
    [
      "ci",
      "Ã³n"
    ],
    [
      "ere",
      "st"
    ],
    [
      "æŃ·",
      "åı²"
    ],
    [
      "Ġb",
      "ig"
    ],
    [
      "éĵ",
      "ģ"
    ],
    [
      "Ġs",
      "l"
    ],
    [
      "Ġl",
      "ess"
    ],
    [
      "æıĲ",
      "åĩº"
    ],
    [
      "ç»",
      "Ń"
    ],
    [
      "ch",
      "ool"
    ],
    [
      "éĽ",
      "Ļ"
    ],
    [
      "Ġplant",
      "s"
    ],
    [
      "v",
      "ent"
    ],
    [
      "å£",
      "°"
    ],
    [
      "Ġle",
      "vel"
    ],
    [
      "æĶ¯æĮģ",
      "çļĦ"
    ],
    [
      "-",
      "{"
    ],
    [
      "ar",
      "l"
    ],
    [
      "åĮ",
      "»"
    ],
    [
      "Ġpro",
      "p"
    ],
    [
      "age",
      "ment"
    ],
    [
      "ĠS",
      "o"
    ],
    [
      "æł·",
      "æľ¬"
    ],
    [
      "Ġimp",
      "ro"
    ],
    [
      "çĶ±",
      "äºİ"
    ],
    [
      "am",
      "ent"
    ],
    [
      "æĸ¹",
      "æ¡Ī"
    ],
    [
      "å¾",
      "ħ"
    ],
    [
      "Ġre",
      "ad"
    ],
    [
      "åĢ",
      "«"
    ],
    [
      "éĽ",
      "ĸ"
    ],
    [
      "Ġcon",
      "f"
    ],
    [
      "oll",
      "ow"
    ],
    [
      "åįļ",
      "çī©"
    ],
    [
      "d",
      "er"
    ],
    [
      "åĪ",
      "»"
    ],
    [
      "Ġcom",
      "o"
    ],
    [
      "æ¸",
      "©"
    ],
    [
      "ç½",
      "ª"
    ],
    [
      "éģĭåĭķ",
      "åĵ¡"
    ],
    [
      "æľī",
      "ä¸Ģ"
    ],
    [
      "å¸Ŀ",
      "åľĭ"
    ],
    [
      "ĠB",
      "l"
    ],
    [
      "åį",
      "ı"
    ],
    [
      "ĠE",
      "n"
    ],
    [
      "ord",
      "ing"
    ],
    [
      "Ġ",
      "z"
    ],
    [
      "Ġre",
      "du"
    ],
    [
      "åĵ",
      "ª"
    ],
    [
      "æĽ",
      "¹"
    ],
    [
      "Ġp",
      "ract"
    ],
    [
      "çĶ",
      "»"
    ],
    [
      "çµ",
      "ķ"
    ],
    [
      "at",
      "o"
    ],
    [
      "Ġ1",
      "7"
    ],
    [
      "Ġ20",
      "13"
    ],
    [
      "è¯Ń",
      "è¨Ģ"
    ],
    [
      "ard",
      "s"
    ],
    [
      "èĴĻ",
      "åı¤"
    ],
    [
      "è",
      "ľ"
    ],
    [
      "æĢ§",
      "çļĦ"
    ],
    [
      "le",
      "y"
    ],
    [
      "æŁ",
      "ĵ"
    ],
    [
      "ç¸½",
      "çµ±"
    ],
    [
      "æ¥",
      "ļ"
    ],
    [
      "Ġm",
      "Ã¡s"
    ],
    [
      "Ġ1",
      "5"
    ],
    [
      "åĨħ",
      "å®¹"
    ],
    [
      "ç»Ħ",
      "ç»ĩ"
    ],
    [
      "Ġt",
      "re"
    ],
    [
      "é©",
      "Ĺ"
    ],
    [
      "Ġgen",
      "er"
    ],
    [
      "Ġb",
      "en"
    ],
    [
      "ä¼",
      "Ĺ"
    ],
    [
      "åĩº",
      "çı¾"
    ],
    [
      "çİ",
      "©"
    ],
    [
      "ç«",
      "¥"
    ],
    [
      "è¾",
      "¦"
    ],
    [
      "Ġpo",
      "int"
    ],
    [
      "Ġsh",
      "ow"
    ],
    [
      "Ġp",
      "ur"
    ],
    [
      "éĻ",
      "Ī"
    ],
    [
      "u",
      "ro"
    ],
    [
      "éģ",
      "ł"
    ],
    [
      "ÑĤ",
      "Ð¾"
    ],
    [
      "ĠP",
      "h"
    ],
    [
      "Ġo",
      "pp"
    ],
    [
      "ic",
      "ro"
    ],
    [
      "èĥ",
      "Į"
    ],
    [
      "ter",
      "n"
    ],
    [
      "ion",
      "es"
    ],
    [
      "Ġfe",
      "ed"
    ],
    [
      "Ġto",
      "o"
    ],
    [
      "æĮĩ",
      "åĩº"
    ],
    [
      "èģ",
      "·"
    ],
    [
      "Ġre",
      "ally"
    ],
    [
      "çĪ",
      "Ĩ"
    ],
    [
      "ĠO",
      "r"
    ],
    [
      "Ġh",
      "um"
    ],
    [
      "Ġare",
      "a"
    ],
    [
      "é²",
      "ľ"
    ],
    [
      "èĪ",
      "Ī"
    ],
    [
      "g",
      "g"
    ],
    [
      "ä¾",
      "¯"
    ],
    [
      "å½",
      "ķ"
    ],
    [
      "è³ĩ",
      "æĸĻ"
    ],
    [
      "åıªèĥ½",
      "è¯´"
    ],
    [
      "v",
      "es"
    ],
    [
      "éĢ",
      "Ĳ"
    ],
    [
      "è©",
      "ŀ"
    ],
    [
      "Ñ",
      "İ"
    ],
    [
      "å¥",
      "ĸ"
    ],
    [
      "å·²ç»ı",
      "ç¡®å®ļ"
    ],
    [
      "çĶ",
      "²"
    ],
    [
      "éŃ",
      "ı"
    ],
    [
      "Ġbet",
      "ter"
    ],
    [
      "æ¥",
      "µ"
    ],
    [
      "att",
      "le"
    ],
    [
      "ant",
      "s"
    ],
    [
      "Ġan",
      "n"
    ],
    [
      "Ġapp",
      "ro"
    ],
    [
      "Ġav",
      "ail"
    ],
    [
      "å¤±è´¥",
      "å·²ç»ıç¡®å®ļ"
    ],
    [
      "Ġinv",
      "est"
    ],
    [
      "Ġ",
      "["
    ],
    [
      "Ġs",
      "ci"
    ],
    [
      "åľ",
      "£"
    ],
    [
      "ä¹ĭ",
      "å¾Į"
    ],
    [
      "Ġr",
      "un"
    ],
    [
      "Ġa",
      "w"
    ],
    [
      "è¼",
      "ī"
    ],
    [
      "one",
      "y"
    ],
    [
      "itt",
      "le"
    ],
    [
      "åľ¨",
      "éĽĨåĲĪ"
    ],
    [
      "Ġre",
      "st"
    ],
    [
      "Ġfarm",
      "ing"
    ],
    [
      "Ġt",
      "y"
    ],
    [
      "æĺ¯",
      "åľ¨"
    ],
    [
      "Ġc",
      "ult"
    ],
    [
      "åľ¨éĽĨåĲĪ",
      "A"
    ],
    [
      "at",
      "ch"
    ],
    [
      "è¿Ĳ",
      "åĬ¨"
    ],
    [
      "åŃ",
      "©"
    ],
    [
      "Ġc",
      "are"
    ],
    [
      "å°",
      "ļ"
    ],
    [
      "ĠA",
      "ll"
    ],
    [
      "ĠT",
      "r"
    ],
    [
      "è¿",
      "ľ"
    ],
    [
      "è¡",
      "Ĺ"
    ],
    [
      "æ°",
      "§"
    ],
    [
      "Ġc",
      "le"
    ],
    [
      "åľ",
      "į"
    ],
    [
      "æķ",
      "£"
    ],
    [
      "é£",
      "Ľ"
    ],
    [
      "æľĢ",
      "é«ĺ"
    ],
    [
      "éħ",
      "¸"
    ],
    [
      "å®Ĺ",
      "æķĻ"
    ],
    [
      "Ġp",
      "ast"
    ],
    [
      "æ¿",
      "Ģ"
    ],
    [
      "Ġ",
      "Z"
    ],
    [
      "çĽ´",
      "æİ¥"
    ],
    [
      "Ð",
      "³"
    ],
    [
      "Ġ1",
      "1"
    ],
    [
      "æĹ",
      "¢"
    ],
    [
      "èĤ",
      "ī"
    ],
    [
      "Ġ",
      "ä¸ŃåĽ½"
    ],
    [
      "Ġwe",
      "ek"
    ],
    [
      "è¯ģæį®",
      "æĶ¯æĮģçļĦ"
    ],
    [
      "Ġeff",
      "ect"
    ],
    [
      "\/",
      "\/"
    ],
    [
      "é",
      "İ"
    ],
    [
      "b",
      "s"
    ],
    [
      "g",
      "en"
    ],
    [
      "ç¬¬",
      "ä¸ī"
    ],
    [
      "Ġl",
      "ife"
    ],
    [
      "ĠC",
      "on"
    ],
    [
      "Ġe",
      "qu"
    ],
    [
      "éĻ¤",
      "äºĨ"
    ],
    [
      "è¨±",
      "å¤ļ"
    ],
    [
      "å¤",
      "ľ"
    ],
    [
      "Ġf",
      "ac"
    ],
    [
      "æĸ°",
      "çļĦ"
    ],
    [
      "å±",
      "Ĥ"
    ],
    [
      "Ġh",
      "ome"
    ],
    [
      "å¼",
      "Ĺ"
    ],
    [
      "è«",
      "¾"
    ],
    [
      "é",
      "¨"
    ],
    [
      "us",
      "s"
    ],
    [
      "ç¨ĭ",
      "åºı"
    ],
    [
      "ä»",
      "ħ"
    ],
    [
      "èĩ",
      "£"
    ],
    [
      "çŁ¥",
      "éģĵ"
    ],
    [
      "é",
      "³"
    ],
    [
      "ãĢĤ",
      "ãĢį"
    ],
    [
      "Ġcom",
      "e"
    ],
    [
      "rou",
      "ght"
    ],
    [
      "Ġ",
      "å¤§"
    ],
    [
      "ç»",
      "ľ"
    ],
    [
      "ĠB",
      "e"
    ],
    [
      "çĶļ",
      "èĩ³"
    ],
    [
      "æ¸",
      "¬"
    ],
    [
      "Ð¾Ð",
      "»"
    ],
    [
      "å½±",
      "åĵį"
    ],
    [
      "è©",
      "ķ"
    ],
    [
      "è²",
      "Ŀ"
    ],
    [
      "èĭ±",
      "åĽ½"
    ],
    [
      "Ġcount",
      "ry"
    ],
    [
      "Ġs",
      "ince"
    ],
    [
      "ä¹",
      "İ"
    ],
    [
      "19",
      "3"
    ],
    [
      "ĠAgricult",
      "ure"
    ],
    [
      "å½±",
      "éŁ¿"
    ],
    [
      "ç¸",
      "£"
    ],
    [
      "Ġs",
      "k"
    ],
    [
      "è¯",
      "Ħ"
    ],
    [
      "ĠCom",
      "m"
    ],
    [
      "8",
      "0"
    ],
    [
      "Ġne",
      "xt"
    ],
    [
      "ç¹",
      "¼"
    ],
    [
      "ĠC",
      "l"
    ],
    [
      "Ġ",
      "="
    ],
    [
      "è¯",
      "º"
    ],
    [
      "åıĹ",
      "åĪ°"
    ],
    [
      "å²",
      "ģ"
    ],
    [
      "æĳ",
      "©"
    ],
    [
      "Ġ",
      "Q"
    ],
    [
      "éļ",
      "¾"
    ],
    [
      "b",
      "re"
    ],
    [
      "èģ",
      "Į"
    ],
    [
      "ru",
      "ct"
    ],
    [
      "è¨Ń",
      "è¨Ī"
    ],
    [
      "ç´",
      "ħ"
    ],
    [
      "çµ",
      "Ĥ"
    ],
    [
      "Ġint",
      "erest"
    ],
    [
      "çĮ",
      "®"
    ],
    [
      "Ġke",
      "ep"
    ],
    [
      "i",
      "ence"
    ],
    [
      "Ġe",
      "as"
    ],
    [
      "èī",
      "º"
    ],
    [
      "Ġdis",
      "e"
    ],
    [
      "Ġc",
      "ap"
    ],
    [
      "ĠC",
      "ent"
    ],
    [
      "ç±",
      "į"
    ],
    [
      "çĻ¼",
      "çı¾"
    ],
    [
      "æķ°",
      "æį®"
    ],
    [
      "Ġf",
      "ore"
    ],
    [
      "ort",
      "un"
    ],
    [
      "our",
      "ces"
    ],
    [
      "ĠA",
      "f"
    ],
    [
      "ro",
      "du"
    ],
    [
      "æĭ",
      "ľ"
    ],
    [
      "æ±",
      "Ĺ"
    ],
    [
      "æ³ķ",
      "åľĭ"
    ],
    [
      "Ðµ",
      "ÑĢ"
    ],
    [
      "å®Į",
      "æĪĲ"
    ],
    [
      "if",
      "ied"
    ],
    [
      "èŃ",
      "ĺ"
    ],
    [
      "åĨ",
      "µ"
    ],
    [
      "Ġpro",
      "m"
    ],
    [
      "æİ",
      "¢"
    ],
    [
      "çł",
      "ģ"
    ],
    [
      "å¥½",
      "çļĦ"
    ],
    [
      "çĥ",
      "Ń"
    ],
    [
      "åĳ",
      "¼"
    ],
    [
      "er",
      "a"
    ],
    [
      "ä¹",
      "ł"
    ],
    [
      "ä¼",
      "ĳ"
    ],
    [
      "am",
      "b"
    ],
    [
      "è©",
      "¦"
    ],
    [
      "ä¸į",
      "éģİ"
    ],
    [
      "ä½ľ",
      "ä¸º"
    ],
    [
      "æŁ",
      "ı"
    ],
    [
      "Ġa",
      "ff"
    ],
    [
      "éķ",
      "ĩ"
    ],
    [
      "Ġ",
      "æĪĳ"
    ],
    [
      "it",
      "al"
    ],
    [
      "Ġl",
      "ab"
    ],
    [
      "åħ",
      "´"
    ],
    [
      "Ġw",
      "in"
    ],
    [
      "éĩ",
      "İ"
    ],
    [
      "ä¸Ń",
      "èı¯"
    ],
    [
      "st",
      "and"
    ],
    [
      "ĠF",
      "l"
    ],
    [
      "Ð",
      "¹"
    ],
    [
      "åį",
      "Ķ"
    ],
    [
      "æĹ",
      "Ĺ"
    ],
    [
      "Ġbu",
      "ild"
    ],
    [
      "æŀ",
      "¶"
    ],
    [
      "è¿Ļ",
      "ç§į"
    ],
    [
      "ĠT",
      "o"
    ],
    [
      "æķ",
      "Ĺ"
    ],
    [
      "ç¦",
      "ģ"
    ],
    [
      "Ð½",
      "Ð¾"
    ],
    [
      "æĪ",
      "¶"
    ],
    [
      "éģ",
      "ĩ"
    ],
    [
      "is",
      "ion"
    ],
    [
      "å¾",
      "©"
    ],
    [
      "Ġmon",
      "th"
    ],
    [
      "ĠCal",
      "if"
    ],
    [
      "Ġprov",
      "ide"
    ],
    [
      "çĬ",
      "¶"
    ],
    [
      "åĪ©",
      "çĶ¨"
    ],
    [
      "at",
      "ural"
    ],
    [
      "ĠC",
      "ol"
    ],
    [
      "Ġb",
      "re"
    ],
    [
      "ci",
      "a"
    ],
    [
      "ind",
      "ows"
    ],
    [
      "ÑĤ",
      "ÑĮ"
    ],
    [
      "--",
      "--"
    ],
    [
      "ä¸Ģ",
      "èµ·"
    ],
    [
      "art",
      "ment"
    ],
    [
      "è",
      "ķ"
    ],
    [
      "Ġto",
      "p"
    ],
    [
      "ä¸Ģ",
      "çĽ´"
    ],
    [
      "çĻ¼",
      "çĶŁ"
    ],
    [
      "éł",
      "Ĳ"
    ],
    [
      "ĠAs",
      "s"
    ],
    [
      "Ġt",
      "ry"
    ],
    [
      "æŀ",
      "Ĳ"
    ],
    [
      "re",
      "t"
    ],
    [
      "å¿",
      "½"
    ],
    [
      "ain",
      "s"
    ],
    [
      "åľĭ",
      "éļĽ"
    ],
    [
      "ir",
      "d"
    ],
    [
      "å·²",
      "ç¶ĵ"
    ],
    [
      "èĴ",
      "Ĥ"
    ],
    [
      "åĽ",
      "º"
    ],
    [
      "g",
      "o"
    ],
    [
      "Ġst",
      "and"
    ],
    [
      "Ġdevelop",
      "ment"
    ],
    [
      "Ġpos",
      "s"
    ],
    [
      "åħ¨",
      "åĽ½"
    ],
    [
      "Ġgrow",
      "ing"
    ],
    [
      "ab",
      "l"
    ],
    [
      "åħ",
      "¼"
    ],
    [
      "ĠUn",
      "ited"
    ],
    [
      "Ġc",
      "or"
    ],
    [
      "è½",
      "½"
    ],
    [
      "Ġle",
      "g"
    ],
    [
      "Ġ",
      "ide"
    ],
    [
      "ition",
      "al"
    ],
    [
      "ç¿",
      "Ĵ"
    ],
    [
      "Ġd",
      "i"
    ],
    [
      "çĶ±",
      "æĸ¼"
    ],
    [
      "éĮ",
      "¯"
    ],
    [
      "é",
      "§"
    ],
    [
      "ä¿",
      "Ĥ"
    ],
    [
      "è¼",
      "ķ"
    ],
    [
      "çĶµ",
      "è§Ĩ"
    ],
    [
      "éº",
      "Ĺ"
    ],
    [
      "ic",
      "o"
    ],
    [
      "çĽ",
      "Ľ"
    ],
    [
      "Ġcur",
      "rent"
    ],
    [
      "Ġben",
      "ef"
    ],
    [
      "åħ¨",
      "çĲĥ"
    ],
    [
      "åıĳ",
      "çĶŁ"
    ],
    [
      "Ġdis",
      "c"
    ],
    [
      "å®Į",
      "åħ¨"
    ],
    [
      "åª",
      "Ĵ"
    ],
    [
      "er",
      "ing"
    ],
    [
      "Ġl",
      "ear"
    ],
    [
      "çī",
      "Ľ"
    ],
    [
      "è§£",
      "éĩĬ"
    ],
    [
      "æĿ",
      "¾"
    ],
    [
      "åľ°",
      "åįĢ"
    ],
    [
      "Ġp",
      "ay"
    ],
    [
      "ä½ľ",
      "å®¶"
    ],
    [
      "Ġr",
      "is"
    ],
    [
      "è®¾",
      "è®¡"
    ],
    [
      "éŃ",
      "Ķ"
    ],
    [
      "Ġgovern",
      "ment"
    ],
    [
      "ä¹",
      "¾"
    ],
    [
      "ç¯",
      "ĩ"
    ],
    [
      "r",
      "on"
    ],
    [
      "ĠÐ",
      "¼"
    ],
    [
      "ĠAmer",
      "ican"
    ],
    [
      "ĠC",
      "o"
    ],
    [
      "æķ",
      "ĳ"
    ],
    [
      "ab",
      "ility"
    ],
    [
      "ç»",
      "Ī"
    ],
    [
      "Ġl",
      "arge"
    ],
    [
      "n",
      "ess"
    ],
    [
      "v",
      "iew"
    ],
    [
      "åĲ",
      "§"
    ],
    [
      "|",
      "|"
    ],
    [
      "èı",
      "²"
    ],
    [
      "Ġrec",
      "ent"
    ],
    [
      "å±ŀ",
      "äºİ"
    ],
    [
      "è¡",
      "Ľ"
    ],
    [
      "ĠA",
      "t"
    ],
    [
      "æĢĿ",
      "æĥ³"
    ],
    [
      "Ġd",
      "ata"
    ],
    [
      "åĲĮ",
      "æĻĤ"
    ],
    [
      "are",
      "d"
    ],
    [
      "èħ",
      "¦"
    ],
    [
      "ent",
      "ial"
    ],
    [
      "å£",
      "ĵ"
    ],
    [
      "ç®",
      "Ģ"
    ],
    [
      "è½",
      "¯"
    ],
    [
      "Ġavail",
      "able"
    ],
    [
      "Ġl",
      "ittle"
    ],
    [
      "åĬ",
      "ĥ"
    ],
    [
      "å®ļ",
      "çļĦ"
    ],
    [
      "ç½ĳ",
      "ç»ľ"
    ],
    [
      "è¯",
      "»"
    ],
    [
      "Ġha",
      "pp"
    ],
    [
      "Ġnum",
      "ber"
    ],
    [
      "æ»",
      "¡"
    ],
    [
      "ä¼",
      "¦"
    ],
    [
      "äºĮ",
      "åįģ"
    ],
    [
      "Ġch",
      "ange"
    ],
    [
      "our",
      "ce"
    ],
    [
      "c",
      "cess"
    ],
    [
      "Ġm",
      "ust"
    ],
    [
      "åł",
      "¡"
    ],
    [
      "å²",
      "¸"
    ],
    [
      "è®",
      "Ģ"
    ],
    [
      "Ġch",
      "ild"
    ],
    [
      "A",
      "R"
    ],
    [
      "Ġ",
      "â"
    ],
    [
      "æĸ",
      "·"
    ],
    [
      "éģ",
      "Ń"
    ],
    [
      "èŃ",
      "¯"
    ],
    [
      "Ġrequ",
      "ire"
    ],
    [
      "i",
      "k"
    ],
    [
      "ä»",
      "ģ"
    ],
    [
      "ĠTh",
      "at"
    ],
    [
      "æŃ",
      "¡"
    ],
    [
      "w",
      "ays"
    ],
    [
      "åı",
      "¥"
    ],
    [
      "Ġf",
      "ollow"
    ],
    [
      "èį",
      "ī"
    ],
    [
      "7",
      "0"
    ],
    [
      "éł",
      "Ī"
    ],
    [
      "Ġdes",
      "ign"
    ],
    [
      "åŃ¦",
      "éĻ¢"
    ],
    [
      "Ġpl",
      "ace"
    ],
    [
      "ar",
      "vest"
    ],
    [
      "èĪ",
      "¹"
    ],
    [
      "ç½",
      "²"
    ],
    [
      "å¸Ŀ",
      "åĽ½"
    ],
    [
      "Ġte",
      "am"
    ],
    [
      "in",
      "o"
    ],
    [
      "Ġf",
      "und"
    ],
    [
      "id",
      "o"
    ],
    [
      "éĥ",
      "¡"
    ],
    [
      "æ³",
      "ģ"
    ],
    [
      "æı",
      "ı"
    ],
    [
      "èĥ",
      "¡"
    ],
    [
      "ç³»",
      "åĪĹ"
    ],
    [
      "é¾",
      "Ļ"
    ],
    [
      "å§Ķåĳĺ",
      "ä¼ļ"
    ],
    [
      "Ġp",
      "ut"
    ],
    [
      "æĿ",
      "ľ"
    ],
    [
      "å¦Ĥ",
      "ä½ķ"
    ],
    [
      "ĠWh",
      "at"
    ],
    [
      "pt",
      "ion"
    ],
    [
      "s",
      "p"
    ],
    [
      "ä¹Ł",
      "æľī"
    ],
    [
      "ä¸»",
      "ç¾©"
    ],
    [
      "æĸ¯",
      "åĿ¦"
    ],
    [
      "orn",
      "ia"
    ],
    [
      "aj",
      "or"
    ],
    [
      "Ð",
      "±"
    ],
    [
      "en",
      "se"
    ],
    [
      "çķ",
      "°"
    ],
    [
      "ĠSt",
      "ate"
    ],
    [
      "å¥",
      "Ĺ"
    ],
    [
      "å±",
      "¤"
    ],
    [
      "åĨ",
      "ľ"
    ],
    [
      "ç§",
      "ģ"
    ],
    [
      "Ġprodu",
      "ce"
    ],
    [
      "çĩ",
      "Ł"
    ],
    [
      "ĠAf",
      "ric"
    ],
    [
      "i",
      "um"
    ],
    [
      "ou",
      "n"
    ],
    [
      "å¾Ĺ",
      "åĪ°"
    ],
    [
      "Ġop",
      "en"
    ],
    [
      "çĶ",
      "³"
    ],
    [
      "et",
      "er"
    ],
    [
      "ç¶ĵ",
      "æ¿Ł"
    ],
    [
      "Ġh",
      "ard"
    ],
    [
      "I",
      "t"
    ],
    [
      "a",
      "f"
    ],
    [
      "çĬ",
      "¯"
    ],
    [
      "å®",
      "®"
    ],
    [
      "èį",
      "·"
    ],
    [
      "åĽ",
      "´"
    ],
    [
      "ç©",
      "į"
    ],
    [
      "Ð¾Ð",
      "¼"
    ],
    [
      "é",
      "¸"
    ],
    [
      "Ġ20",
      "12"
    ],
    [
      "t",
      "p"
    ],
    [
      "é",
      "į"
    ],
    [
      "å½",
      "©"
    ],
    [
      "od",
      "e"
    ],
    [
      "æŃ»",
      "äº¡"
    ],
    [
      "éĿ",
      "ł"
    ],
    [
      "æº",
      "«"
    ],
    [
      "éĲ",
      "µ"
    ],
    [
      "Ġl",
      "ist"
    ],
    [
      "ç¹",
      "Ķ"
    ],
    [
      "Ġ19",
      "3"
    ],
    [
      "çľĭ",
      "åĪ°"
    ],
    [
      "Ġf",
      "ut"
    ],
    [
      "èı",
      "ľ"
    ],
    [
      "ç¨±",
      "çĤº"
    ],
    [
      "T",
      "h"
    ],
    [
      "çŃ",
      "ĳ"
    ],
    [
      "Ġg",
      "ra"
    ],
    [
      "è³",
      "½"
    ],
    [
      "Ġsa",
      "f"
    ],
    [
      "å",
      "Ĺ"
    ],
    [
      "åŁ",
      "·"
    ],
    [
      "ĠL",
      "a"
    ],
    [
      "Ġc",
      "our"
    ],
    [
      "us",
      "h"
    ],
    [
      "ãĢĭ",
      "ãĢģ"
    ],
    [
      "ç»",
      "§"
    ],
    [
      "ç§",
      "ĭ"
    ],
    [
      "ust",
      "om"
    ],
    [
      "å¹",
      "ķ"
    ],
    [
      "Ġh",
      "ist"
    ],
    [
      "ri",
      "end"
    ],
    [
      "èĲ",
      "¨"
    ],
    [
      "r",
      "is"
    ],
    [
      "it",
      "ions"
    ],
    [
      "éŃ",
      "¯"
    ],
    [
      "Ġl",
      "arg"
    ],
    [
      "ç¼",
      "º"
    ],
    [
      "Ġcol",
      "le"
    ],
    [
      "åıĳ",
      "çİ°"
    ],
    [
      "ert",
      "ain"
    ],
    [
      "éĢ",
      "Ĥ"
    ],
    [
      "å¥³",
      "åŃĲ"
    ],
    [
      "ä½",
      "Ļ"
    ],
    [
      "åĩº",
      "çīĪ"
    ],
    [
      "Ġ1",
      "6"
    ],
    [
      "é£",
      "ŀ"
    ],
    [
      "éª",
      "¨"
    ],
    [
      "è¨",
      "Ĥ"
    ],
    [
      "æı",
      "´"
    ],
    [
      "åĶ",
      "±"
    ],
    [
      "Ġorgan",
      "ic"
    ],
    [
      "ĠS",
      "he"
    ],
    [
      "ä¹ĭ",
      "åīį"
    ],
    [
      "è¿Ļ",
      "ä¸Ģ"
    ],
    [
      "ob",
      "al"
    ],
    [
      "Ġf",
      "ru"
    ],
    [
      "ä¼",
      "ĺ"
    ],
    [
      "ĠD",
      "ep"
    ],
    [
      "Ġ",
      "Ñ"
    ],
    [
      "åĭ",
      "¢"
    ],
    [
      "ĠSt",
      "ates"
    ],
    [
      "1",
      "00"
    ],
    [
      "e",
      "ad"
    ],
    [
      "Ġs",
      "it"
    ],
    [
      "Ġp",
      "ost"
    ],
    [
      "at",
      "ely"
    ],
    [
      "çĪ",
      "µ"
    ],
    [
      "åĤ",
      "·"
    ],
    [
      "éŁ³",
      "æ¨Ĥ"
    ],
    [
      ":",
      "\/\/"
    ],
    [
      "Ġt",
      "urn"
    ],
    [
      "åĲĪ",
      "ä½ľ"
    ],
    [
      "Ġs",
      "on"
    ],
    [
      "Ġp",
      "at"
    ],
    [
      "her",
      "s"
    ],
    [
      "Ġf",
      "our"
    ],
    [
      "ĠCalif",
      "ornia"
    ],
    [
      "E",
      "R"
    ],
    [
      "è´",
      "£"
    ],
    [
      "Ġme",
      "et"
    ],
    [
      "Ġwhe",
      "at"
    ],
    [
      "i",
      "pp"
    ],
    [
      "ä¼ļ",
      "è®®"
    ],
    [
      "ĠO",
      "n"
    ],
    [
      "çĶ·",
      "åŃĲ"
    ],
    [
      ".",
      ","
    ],
    [
      "Ġt",
      "em"
    ],
    [
      "an",
      "n"
    ],
    [
      "ä¸Ĭ",
      "æµ·"
    ],
    [
      "uro",
      "pe"
    ],
    [
      "Ġcontro",
      "l"
    ],
    [
      "ar",
      "c"
    ],
    [
      "ç¦",
      "®"
    ],
    [
      "Ġwork",
      "ing"
    ],
    [
      "éĽĸ",
      "çĦ¶"
    ],
    [
      "å¸Į",
      "æľĽ"
    ],
    [
      "ä»¥",
      "ä¸ĭ"
    ],
    [
      "åĩº",
      "çİ°"
    ],
    [
      "Ġwith",
      "out"
    ],
    [
      "è",
      "¸"
    ],
    [
      "äº",
      "ĳ"
    ],
    [
      "oh",
      "n"
    ],
    [
      "èĥ½",
      "åĬĽ"
    ],
    [
      "çĸ",
      "«"
    ],
    [
      "éģ",
      "¿"
    ],
    [
      "ĠI",
      "s"
    ],
    [
      "Ġse",
      "ason"
    ],
    [
      "æģ",
      "¶"
    ],
    [
      "èĲ",
      "¥"
    ],
    [
      "Ġcon",
      "c"
    ],
    [
      "Ġan",
      "other"
    ],
    [
      "æľĢ",
      "å¾Į"
    ],
    [
      "æ¢",
      "ħ"
    ],
    [
      "Ġc",
      "u"
    ],
    [
      "al",
      "f"
    ],
    [
      "Ġm",
      "aking"
    ],
    [
      "Ġf",
      "il"
    ],
    [
      "æĶ",
      "Ŀ"
    ],
    [
      "Ġl",
      "et"
    ],
    [
      "å",
      "«"
    ],
    [
      "in",
      "ed"
    ],
    [
      "er",
      "y"
    ],
    [
      "Ġp",
      "ass"
    ],
    [
      "å®",
      "ģ"
    ],
    [
      "åĪ",
      "ĺ"
    ],
    [
      "æŃ",
      "²"
    ],
    [
      "ĠB",
      "y"
    ],
    [
      "çīĪ",
      "æľ¬"
    ],
    [
      "!",
      "!"
    ],
    [
      "ou",
      "ght"
    ],
    [
      "çİĭ",
      "æľĿ"
    ],
    [
      "Ð»",
      "Ð¸"
    ],
    [
      "ç§°",
      "ä¸º"
    ],
    [
      "Ġu",
      "t"
    ],
    [
      "èĪª",
      "ç©º"
    ],
    [
      "Ġb",
      "ook"
    ],
    [
      "Ġm",
      "ajor"
    ],
    [
      "ç©",
      "Ĩ"
    ],
    [
      "èĳĹ",
      "åĲį"
    ],
    [
      "eth",
      "ing"
    ],
    [
      "at",
      "s"
    ],
    [
      "od",
      "y"
    ],
    [
      "æ°ĳ",
      "åľĭ"
    ],
    [
      "ä¸",
      "½"
    ],
    [
      "ĠT",
      "e"
    ],
    [
      "Ġare",
      "as"
    ],
    [
      "æ´»",
      "åĬ¨"
    ],
    [
      "åı¦",
      "å¤ĸ"
    ],
    [
      "m",
      "in"
    ],
    [
      "Ġ",
      "\/"
    ],
    [
      "è§",
      "ī"
    ],
    [
      "Ġcon",
      "d"
    ],
    [
      "ĠÐ",
      "´"
    ],
    [
      "æĹ¶",
      "æľŁ"
    ],
    [
      "amp",
      "le"
    ],
    [
      "ic",
      "y"
    ],
    [
      "t",
      "o"
    ],
    [
      "æĺ¯",
      "åĲ¦"
    ],
    [
      "è",
      "¤"
    ],
    [
      "åļ",
      "´"
    ],
    [
      "r",
      "as"
    ],
    [
      "èµ",
      "«"
    ],
    [
      "Ð°",
      "Ð½"
    ],
    [
      "Ġch",
      "ang"
    ],
    [
      "éľ",
      "²"
    ],
    [
      "èİ·",
      "å¾Ĺ"
    ],
    [
      "im",
      "ate"
    ],
    [
      "ä»Ģ",
      "éº¼"
    ],
    [
      "åıª",
      "æĺ¯"
    ],
    [
      "Ġd",
      "airy"
    ],
    [
      "(",
      ")"
    ],
    [
      "Ġn",
      "ut"
    ],
    [
      "Ġcon",
      "st"
    ],
    [
      "æ³ķ",
      "å¾ĭ"
    ],
    [
      "th",
      "ing"
    ],
    [
      "ä¸Ģ",
      "æ¬¡"
    ],
    [
      "ä¹ĭ",
      "åĲİ"
    ],
    [
      "çķ¶",
      "æĻĤ"
    ],
    [
      "Ġtr",
      "ad"
    ],
    [
      "æĵ",
      "ĩ"
    ],
    [
      "åĶ",
      "®"
    ],
    [
      "ĠW",
      "ith"
    ],
    [
      "å»",
      "·"
    ],
    [
      "ä½į",
      "ç½®"
    ],
    [
      "l",
      "ess"
    ],
    [
      "åĽ",
      "Ń"
    ],
    [
      "éļ",
      "ľ"
    ],
    [
      "i",
      "or"
    ],
    [
      "Ġ",
      "."
    ],
    [
      "Ġ",
      "å¤ĸ"
    ],
    [
      "èĪ",
      "ŀ"
    ],
    [
      "æĸ¯",
      "çī¹"
    ],
    [
      "Ġall",
      "ow"
    ],
    [
      "con",
      "d"
    ],
    [
      "Ġcompl",
      "et"
    ],
    [
      "ĠM",
      "an"
    ],
    [
      "r",
      "ation"
    ],
    [
      "Ġp",
      "a"
    ],
    [
      "å°",
      "¤"
    ],
    [
      "ĠW",
      "hen"
    ],
    [
      "è¾",
      "ĳ"
    ],
    [
      "h",
      "or"
    ],
    [
      "iz",
      "ation"
    ],
    [
      "éº",
      "»"
    ],
    [
      "Ġt",
      "est"
    ],
    [
      "ä¹ĭ",
      "éĹ´"
    ],
    [
      "åģ",
      "¶"
    ],
    [
      "éł",
      "ĵ"
    ],
    [
      "Ġab",
      "le"
    ],
    [
      "èŀ",
      "į"
    ],
    [
      "ä¸Ģ",
      "ä¸ĸ"
    ],
    [
      "Ġth",
      "ings"
    ],
    [
      "ä½į",
      "äºİ"
    ],
    [
      "èĤ",
      "¡"
    ],
    [
      "æ°ĳ",
      "ä¸»"
    ],
    [
      "åĥ",
      "ħ"
    ],
    [
      "çĹ",
      "Ľ"
    ],
    [
      "è°",
      "·"
    ],
    [
      "iss",
      "ion"
    ],
    [
      "i",
      "ver"
    ],
    [
      "çº",
      "¢"
    ],
    [
      "è´",
      "Ł"
    ],
    [
      "å§",
      "ĵ"
    ],
    [
      "Ġm",
      "ight"
    ],
    [
      "oc",
      "us"
    ],
    [
      "Ġ",
      "'"
    ],
    [
      "ĠE",
      "urope"
    ],
    [
      "å¥³",
      "æ¼Ķåĵ¡"
    ],
    [
      "Ġcommun",
      "ity"
    ],
    [
      "éģ",
      "Ĺ"
    ],
    [
      "å¥³",
      "æĢ§"
    ],
    [
      "åŃ",
      "Ļ"
    ],
    [
      "am",
      "es"
    ],
    [
      "çĶ¨",
      "çļĦ"
    ],
    [
      "ç§",
      "ĺ"
    ],
    [
      "é",
      "¹"
    ],
    [
      "ĠN",
      "ational"
    ],
    [
      "'",
      "re"
    ],
    [
      "Ġre",
      "ce"
    ],
    [
      "å¯",
      "¶"
    ],
    [
      "æļ",
      "´"
    ],
    [
      "æķħ",
      "äºĭ"
    ],
    [
      "äº¤",
      "éĢļ"
    ],
    [
      "æı",
      "Ľ"
    ],
    [
      "ear",
      "ch"
    ],
    [
      "Ġl",
      "im"
    ],
    [
      "ä¹",
      "ĺ"
    ],
    [
      "ä¸įåĲĮ",
      "çļĦ"
    ],
    [
      "é²",
      "ģ"
    ],
    [
      "Ġsom",
      "ething"
    ],
    [
      "éļ",
      "ª"
    ],
    [
      "çĶµ",
      "å½±"
    ],
    [
      "Ġen",
      "g"
    ],
    [
      "è²",
      "·"
    ],
    [
      "å½¢",
      "å¼ı"
    ],
    [
      "Ġb",
      "as"
    ],
    [
      "éĹľ",
      "ä¿Ĥ"
    ],
    [
      "Ġbel",
      "ie"
    ],
    [
      "s",
      "on"
    ],
    [
      "id",
      "ed"
    ],
    [
      "æį",
      "¢"
    ],
    [
      "Ġcount",
      "ries"
    ],
    [
      "ĠÐ¿",
      "ÑĢ"
    ],
    [
      "I",
      "N"
    ],
    [
      "g",
      "in"
    ],
    [
      "ç¾ħ",
      "æĸ¯"
    ],
    [
      "ç»Ĩ",
      "èĥŀ"
    ],
    [
      "or",
      "ld"
    ],
    [
      "Ġse",
      "ver"
    ],
    [
      "è·",
      "Ŀ"
    ],
    [
      "å¯¹",
      "äºİ"
    ],
    [
      "èĹ",
      "¥"
    ],
    [
      "l",
      "ing"
    ],
    [
      "l",
      "o"
    ],
    [
      "äºĭ",
      "å®ŀ"
    ],
    [
      "å¾·",
      "åľĭ"
    ],
    [
      "ç¯",
      "Ħ"
    ],
    [
      "t",
      "he"
    ],
    [
      "å¤§",
      "å®¶"
    ],
    [
      "åº",
      "ĵ"
    ],
    [
      "åľ°",
      "æĸ¹"
    ],
    [
      "and",
      "o"
    ],
    [
      "æ´»",
      "åĭķ"
    ],
    [
      "æ³ķ",
      "åĽ½"
    ],
    [
      "iv",
      "en"
    ],
    [
      "åĬł",
      "åħ¥"
    ],
    [
      "Ġla",
      "w"
    ],
    [
      "è¬",
      "Ŀ"
    ],
    [
      "æľ",
      "ĭ"
    ],
    [
      "è¾",
      "ĵ"
    ],
    [
      "ĠC",
      "ount"
    ],
    [
      "åĨ",
      "°"
    ],
    [
      "ĠG",
      "o"
    ],
    [
      "9",
      "0"
    ],
    [
      "at",
      "or"
    ],
    [
      "ul",
      "ation"
    ],
    [
      "å»º",
      "çŃĳ"
    ],
    [
      "æ¬§",
      "æ´²"
    ],
    [
      "éĻ",
      "µ"
    ],
    [
      "åľ°",
      "çĲĥ"
    ],
    [
      "åħ³",
      "ç³»"
    ],
    [
      "3",
      "5"
    ],
    [
      "Ġf",
      "ree"
    ],
    [
      "åŃ¦",
      "æł¡"
    ],
    [
      "Ġsu",
      "ccess"
    ],
    [
      "un",
      "g"
    ],
    [
      "ĠAmer",
      "ica"
    ],
    [
      "o",
      "int"
    ],
    [
      "Ġh",
      "op"
    ],
    [
      "ur",
      "s"
    ],
    [
      "....",
      ".."
    ],
    [
      "æħ",
      "¢"
    ],
    [
      "äººæ°ĳ",
      "åħ±åĴĮåĽ½"
    ],
    [
      "ä¸Ģ",
      "å®ļ"
    ],
    [
      "Ġimp",
      "act"
    ],
    [
      "p",
      "or"
    ],
    [
      "åı",
      "Į"
    ],
    [
      "Ġof",
      "ten"
    ],
    [
      "Ġqu",
      "est"
    ],
    [
      "å°į",
      "æĸ¼"
    ],
    [
      "Ġt",
      "erm"
    ],
    [
      "äº",
      "Ī"
    ],
    [
      "é¢",
      "ĳ"
    ],
    [
      "æĻĤ",
      "æľŁ"
    ],
    [
      "I",
      "n"
    ],
    [
      "Ġm",
      "ov"
    ],
    [
      "å¾",
      "Ĵ"
    ],
    [
      "èĭ",
      "¦"
    ],
    [
      "æĶ¿",
      "çŃĸ"
    ],
    [
      "çĲĥ",
      "éģĭåĭķåĵ¡"
    ],
    [
      "4",
      "5"
    ],
    [
      "e",
      "v"
    ],
    [
      "Ġa",
      "p"
    ],
    [
      "ç§",
      "Ģ"
    ],
    [
      "ĠF",
      "r"
    ],
    [
      "èĳ",
      "¡"
    ],
    [
      "éĽ",
      "¨"
    ],
    [
      "ç¢",
      "¼"
    ],
    [
      "Ġbu",
      "y"
    ],
    [
      "Ġu",
      "nt"
    ],
    [
      "ĠN",
      "orth"
    ],
    [
      "æĵ",
      "Ķ"
    ],
    [
      "åĶ",
      "¯"
    ],
    [
      "çĸ",
      "ĳ"
    ],
    [
      "Ġc",
      "ustom"
    ],
    [
      "å·¥",
      "åħ·"
    ],
    [
      "in",
      "al"
    ],
    [
      "ä¾",
      "µ"
    ],
    [
      "åĪĨ",
      "æŀĲ"
    ],
    [
      "Ġinter",
      "n"
    ],
    [
      "Ġpres",
      "ent"
    ],
    [
      "v",
      "ers"
    ],
    [
      "Ġh",
      "arvest"
    ],
    [
      "å¤§",
      "éĩı"
    ],
    [
      "Ġal",
      "ways"
    ],
    [
      "åŃ",
      "«"
    ],
    [
      "Ġg",
      "ot"
    ],
    [
      "åİ",
      "ĭ"
    ],
    [
      "æĥħ",
      "åĨµ"
    ],
    [
      "çĲ",
      "´"
    ],
    [
      "é£",
      "¯"
    ],
    [
      "æ¤į",
      "çī©"
    ],
    [
      "Ġsever",
      "al"
    ],
    [
      "ä¸",
      "¥"
    ],
    [
      "å®",
      "ĩ"
    ],
    [
      "æĪĳ",
      "çļĦ"
    ],
    [
      "æĶ¿æ²»",
      "äººçī©"
    ],
    [
      "r",
      "ing"
    ],
    [
      "ä¸",
      "´"
    ],
    [
      "éĴ",
      "±"
    ],
    [
      "ĠInt",
      "ern"
    ],
    [
      "Ġsu",
      "st"
    ],
    [
      "æª",
      "¢"
    ],
    [
      "ç",
      "Ģ"
    ],
    [
      "en",
      "n"
    ],
    [
      "è®¡",
      "ç®Ĺ"
    ],
    [
      "Ġact",
      "iv"
    ],
    [
      "çĽ",
      "¾"
    ],
    [
      "est",
      "ic"
    ],
    [
      "éĵ",
      "¾"
    ],
    [
      "u",
      "ch"
    ],
    [
      "ab",
      "les"
    ],
    [
      "éģĬ",
      "æĪ²"
    ],
    [
      "äº",
      "®"
    ],
    [
      "ä¸Ń",
      "åįİ"
    ],
    [
      "Ġqu",
      "ality"
    ],
    [
      "ä»",
      "ĺ"
    ],
    [
      "Ġhe",
      "ad"
    ],
    [
      "Ġac",
      "cess"
    ],
    [
      "åĬ",
      "¿"
    ],
    [
      "é»",
      "ĺ"
    ],
    [
      "Ð½",
      "Ñĭ"
    ],
    [
      "åı¦",
      "ä¸Ģ"
    ],
    [
      "a",
      "i"
    ],
    [
      "Ġre",
      "le"
    ],
    [
      "å½",
      "¹"
    ],
    [
      "Ġan",
      "t"
    ],
    [
      "Ġac",
      "ross"
    ],
    [
      "Ġpric",
      "es"
    ],
    [
      "ãĢĭãĢģ",
      "ãĢĬ"
    ],
    [
      "Ġb",
      "ro"
    ],
    [
      "os",
      "ed"
    ],
    [
      "çĹħ",
      "æ¯Ĵ"
    ],
    [
      "Ġfut",
      "ure"
    ],
    [
      "æ¶",
      "²"
    ],
    [
      "æ£",
      "Ģ"
    ],
    [
      "é",
      "®"
    ],
    [
      "éĢ",
      "Ķ"
    ],
    [
      "ÑĤ",
      "Ðµ"
    ],
    [
      "çĤº",
      "äºĨ"
    ],
    [
      "èªŀ",
      "è¨Ģ"
    ],
    [
      "èĩº",
      "çģ£"
    ],
    [
      "ic",
      "ult"
    ],
    [
      "ä¸į",
      "æľĥ"
    ],
    [
      "if",
      "y"
    ],
    [
      "å¯¹",
      "è±¡"
    ],
    [
      "æĪĺ",
      "äºī"
    ],
    [
      "éģ¸",
      "æĵĩ"
    ],
    [
      "èĸ",
      "©"
    ],
    [
      "Ġ",
      "æĸ°"
    ],
    [
      "Ġb",
      "ill"
    ],
    [
      "æ³",
      "Ľ"
    ],
    [
      "Ġpro",
      "per"
    ],
    [
      "è¡Į",
      "çļĦ"
    ],
    [
      "èµ",
      "Ľ"
    ],
    [
      "Ġman",
      "agement"
    ],
    [
      "id",
      "s"
    ],
    [
      "é¡",
      "¿"
    ],
    [
      "é»",
      "İ"
    ],
    [
      "ç»ĵ",
      "æŀĦ"
    ],
    [
      "è®¸",
      "å¤ļ"
    ],
    [
      "Ġ",
      "åĩºçĶŁ"
    ],
    [
      "iv",
      "ed"
    ],
    [
      "é¡",
      "»"
    ],
    [
      "è¼",
      "¸"
    ],
    [
      "çı¾",
      "åľ¨"
    ],
    [
      "çĹ",
      "ĩ"
    ],
    [
      "æ¦Ĥ",
      "å¿µ"
    ],
    [
      "he",
      "re"
    ],
    [
      "Ġs",
      "chool"
    ],
    [
      "ä¸»",
      "å¸Ń"
    ],
    [
      "ĠÐ½",
      "Ð°"
    ],
    [
      "éĥ",
      "Ń"
    ],
    [
      "äºĮ",
      "ä¸ĸ"
    ],
    [
      "4",
      "8"
    ],
    [
      "Ġd",
      "r"
    ],
    [
      "i",
      "ke"
    ],
    [
      "oc",
      "ial"
    ],
    [
      "ard",
      "en"
    ],
    [
      "Ð¾Ð",
      "³"
    ],
    [
      "o",
      "ot"
    ],
    [
      "ç»",
      "Ŀ"
    ],
    [
      "éĽ",
      "ª"
    ],
    [
      "æģ",
      "Ĳ"
    ],
    [
      "è®",
      "¿"
    ],
    [
      "æĸĩ",
      "ç«ł"
    ],
    [
      "æ¥",
      "Ĭ"
    ],
    [
      "Ġc",
      "al"
    ],
    [
      "Ġ",
      "éĢĿä¸ĸ"
    ],
    [
      "åħ±",
      "åĲĮ"
    ],
    [
      "èģĶ",
      "åĲĪ"
    ],
    [
      "ÐµÐ½",
      "Ð¸"
    ],
    [
      "çĦ¶",
      "èĢĮ"
    ],
    [
      "Ġ",
      "ä¸Ģ"
    ],
    [
      "ĠJ",
      "ohn"
    ],
    [
      "Ġopp",
      "ortun"
    ],
    [
      "åĪ",
      "º"
    ],
    [
      "è¡",
      "£"
    ],
    [
      "ĠS",
      "erv"
    ],
    [
      "Ġse",
      "c"
    ],
    [
      "åħ¬",
      "éĩĮ"
    ],
    [
      "åº",
      "«"
    ],
    [
      "æĵ",
      "ģ"
    ],
    [
      "ub",
      "l"
    ],
    [
      "éĮ",
      "¢"
    ],
    [
      "ĠDep",
      "artment"
    ],
    [
      "Ġo",
      "ld"
    ],
    [
      "å¤ļ",
      "å°ĳ"
    ],
    [
      "æª",
      "Ķ"
    ],
    [
      "is",
      "ed"
    ],
    [
      "æĸĩ",
      "åŃĹ"
    ],
    [
      "Ġex",
      "ample"
    ],
    [
      "è²",
      "ł"
    ],
    [
      "æĻĤ",
      "åĢĻ"
    ],
    [
      "i",
      "os"
    ],
    [
      "æŃ¤",
      "å¤ĸ"
    ],
    [
      "çµĦ",
      "ç¹Ķ"
    ],
    [
      "Ġn",
      "atural"
    ],
    [
      "Ġch",
      "all"
    ],
    [
      "åĿ",
      "Ĳ"
    ],
    [
      "åİŁ",
      "åĽł"
    ],
    [
      "è®¡",
      "åĪĴ"
    ],
    [
      "Ġl",
      "ow"
    ],
    [
      "éĩ",
      "ĭ"
    ],
    [
      "Ġen",
      "er"
    ],
    [
      "Ġne",
      "ver"
    ],
    [
      "æľĿ",
      "é²ľ"
    ],
    [
      "ç¾ħ",
      "é¦¬"
    ],
    [
      "read",
      "y"
    ],
    [
      "ĠS",
      "p"
    ],
    [
      "Ġes",
      "pe"
    ],
    [
      "åĺ",
      "ī"
    ],
    [
      "é",
      "ĭ"
    ],
    [
      "å°",
      "Ĭ"
    ],
    [
      "æ®",
      "ĸ"
    ],
    [
      "Ġto",
      "day"
    ],
    [
      "ic",
      "ial"
    ],
    [
      "è¥¿",
      "çıŃ"
    ],
    [
      "è¯´",
      "æĺİ"
    ],
    [
      "æĤ¨",
      "çļĦ"
    ],
    [
      "Ġc",
      "ut"
    ],
    [
      "ä¸Ń",
      "åħ±"
    ],
    [
      "ä»¥",
      "ä¸Ĭ"
    ],
    [
      "çĶŁ",
      "åĳ½"
    ],
    [
      "ç³",
      "Ĭ"
    ],
    [
      "æĬĢ",
      "è¡ĵ"
    ],
    [
      "æľĭ",
      "åıĭ"
    ],
    [
      "è¥¿çıŃ",
      "çīĻ"
    ],
    [
      "s",
      "h"
    ],
    [
      "Ġm",
      "ove"
    ],
    [
      "èģ",
      "ļ"
    ],
    [
      "Ġsust",
      "ain"
    ],
    [
      "pl",
      "oy"
    ],
    [
      "re",
      "g"
    ],
    [
      "æĿ",
      "Ģ"
    ],
    [
      "ant",
      "e"
    ],
    [
      "äºĭ",
      "è®°"
    ],
    [
      "æ»",
      "ħ"
    ],
    [
      "æĪ°",
      "çĪŃ"
    ],
    [
      "å³",
      "°"
    ],
    [
      "åį",
      "´"
    ],
    [
      "æľī",
      "çļĦ"
    ],
    [
      "6",
      "5"
    ],
    [
      "Ġ",
      "X"
    ],
    [
      "ç©",
      "¿"
    ],
    [
      "åºĶ",
      "çĶ¨"
    ],
    [
      "m",
      "e"
    ],
    [
      "åĲĮ",
      "æĢ§"
    ],
    [
      "æĬ",
      "ĺ"
    ],
    [
      "Ġsu",
      "m"
    ],
    [
      "Ġbec",
      "ome"
    ],
    [
      "çİ¯",
      "å¢ĥ"
    ],
    [
      "çļ",
      "Ĩ"
    ],
    [
      "çī¹",
      "åĪ¥"
    ],
    [
      "Ġeff",
      "ort"
    ],
    [
      "r",
      "ig"
    ],
    [
      "ĠM",
      "in"
    ],
    [
      "æİ",
      "¡"
    ],
    [
      "çŁ",
      "Ľ"
    ],
    [
      "Ġfarm",
      "s"
    ],
    [
      "è¶",
      "£"
    ],
    [
      "Ġ20",
      "11"
    ],
    [
      "äº§",
      "çĶŁ"
    ],
    [
      "Ġunder",
      "stand"
    ],
    [
      "6",
      "4"
    ],
    [
      "O",
      "N"
    ],
    [
      "Ġf",
      "ocus"
    ],
    [
      "ĠA",
      "b"
    ],
    [
      "em",
      "ber"
    ],
    [
      "Ġproduc",
      "ers"
    ],
    [
      "åľ°",
      "çĲĨ"
    ],
    [
      "èĽĭ",
      "çĻ½"
    ],
    [
      "Ġj",
      "ob"
    ],
    [
      "å®",
      "Ŀ"
    ],
    [
      "um",
      "p"
    ],
    [
      "éĤĦ",
      "æĺ¯"
    ],
    [
      "Ġ",
      "é«ĺ"
    ],
    [
      "Ġsign",
      "ific"
    ],
    [
      "ä¸",
      "Ļ"
    ],
    [
      "è¿",
      "«"
    ],
    [
      "æī",
      "§"
    ],
    [
      "çĶŁ",
      "äº§"
    ],
    [
      "èĢħ",
      "çļĦ"
    ],
    [
      "om",
      "en"
    ],
    [
      "Ġmil",
      "k"
    ],
    [
      "%",
      ","
    ],
    [
      "Ġp",
      "ower"
    ],
    [
      "ar",
      "n"
    ],
    [
      "Ġ20",
      "10"
    ],
    [
      "Ġso",
      "y"
    ],
    [
      "Ġcl",
      "ass"
    ],
    [
      "ĠP",
      "res"
    ],
    [
      "è´",
      "µ"
    ],
    [
      "èĲ",
      "Ĭ"
    ],
    [
      "Ġcons",
      "ider"
    ],
    [
      "Ġam",
      "ount"
    ],
    [
      "Ġspe",
      "cial"
    ],
    [
      "ot",
      "t"
    ],
    [
      "so",
      "ft"
    ],
    [
      "_",
      "_"
    ],
    [
      "çĽ",
      "ĳ"
    ],
    [
      "Ġ20",
      "14"
    ],
    [
      "å¾·",
      "åĽ½"
    ],
    [
      "è²",
      "´"
    ],
    [
      "åĮħ",
      "åĲ«"
    ],
    [
      "å½",
      "Ī"
    ],
    [
      "è¿Ļ",
      "æł·"
    ],
    [
      "æĹ¶",
      "åĢĻ"
    ],
    [
      "åŁº",
      "åĽł"
    ],
    [
      "æĪ",
      "ı"
    ],
    [
      "åį",
      "±"
    ],
    [
      "Ġal",
      "g"
    ],
    [
      "iv",
      "ely"
    ],
    [
      "ç½Ĺ",
      "é©¬"
    ],
    [
      "Ġret",
      "urn"
    ],
    [
      "Ġagain",
      "st"
    ],
    [
      "ĠE",
      "st"
    ],
    [
      "çĽ¸",
      "éĹľ"
    ],
    [
      "è¿ĩ",
      "ç¨ĭ"
    ],
    [
      "çĶ¢",
      "çĶŁ"
    ],
    [
      "å¸",
      "ķ"
    ],
    [
      "åľĭ",
      "çİĭ"
    ],
    [
      "æµ",
      "ª"
    ],
    [
      "åĪĨ",
      "åŃĲ"
    ],
    [
      "an",
      "a"
    ],
    [
      "æķ",
      "ı"
    ],
    [
      "åħ±",
      "äº§"
    ],
    [
      "å®£",
      "å¸ĥ"
    ],
    [
      "é½",
      "Ĳ"
    ],
    [
      "åĲ",
      "³"
    ],
    [
      "Ġh",
      "ab"
    ],
    [
      "å¥",
      "ı"
    ],
    [
      "am",
      "a"
    ],
    [
      "act",
      "er"
    ],
    [
      "Ġprogram",
      "s"
    ],
    [
      "Ġcall",
      "ed"
    ],
    [
      "é",
      "ı"
    ],
    [
      "an",
      "ies"
    ],
    [
      "Ġd",
      "ays"
    ],
    [
      "ĠE",
      "l"
    ],
    [
      "æ·",
      "¡"
    ],
    [
      "åį",
      "Ī"
    ],
    [
      "åĢ",
      "Ĵ"
    ],
    [
      "èĲ",
      "Ħ"
    ],
    [
      "é¤",
      "Ĭ"
    ],
    [
      "è¿",
      "İ"
    ],
    [
      "ä½ł",
      "çļĦ"
    ],
    [
      "æļ",
      "Ĺ"
    ],
    [
      "Ġincre",
      "ase"
    ],
    [
      "ĠåıĤ",
      "èĢĥ"
    ],
    [
      "åį",
      "·"
    ],
    [
      "åı",
      "¬"
    ],
    [
      "è·",
      "ĳ"
    ],
    [
      "åŁº",
      "çĿ£"
    ],
    [
      "çĸ",
      "¾"
    ],
    [
      "è¯",
      "ĳ"
    ],
    [
      "Ġre",
      "d"
    ],
    [
      "å¯",
      "º"
    ],
    [
      "çĻ",
      "Ĥ"
    ],
    [
      "ä¾Ĩ",
      "çļĦ"
    ],
    [
      "çİ°",
      "åľ¨"
    ],
    [
      "l",
      "t"
    ],
    [
      "Ġ",
      "éĢĻ"
    ],
    [
      "éĢ",
      "ĥ"
    ],
    [
      "è©",
      "©"
    ],
    [
      "Ġal",
      "ready"
    ],
    [
      "ç¿",
      "°"
    ],
    [
      "Ġknow",
      "n"
    ],
    [
      "èĳ¡",
      "èĲĦ"
    ],
    [
      "Ġwith",
      "in"
    ],
    [
      "Ġen",
      "c"
    ],
    [
      "æ³¨",
      "æĦı"
    ],
    [
      "b",
      "y"
    ],
    [
      "s",
      "elf"
    ],
    [
      "ab",
      "ly"
    ],
    [
      "èģ",
      "ŀ"
    ],
    [
      "æĵį",
      "ä½ľ"
    ],
    [
      "Ġrep",
      "res"
    ],
    [
      "å½",
      "Ĵ"
    ],
    [
      "ä½ľ",
      "çĤº"
    ],
    [
      "Ġt",
      "ri"
    ],
    [
      "Ġe",
      "arly"
    ],
    [
      "æľĢ",
      "ä½³"
    ],
    [
      "Ġfe",
      "el"
    ],
    [
      "Ġinclud",
      "e"
    ],
    [
      "icro",
      "soft"
    ],
    [
      "Ġse",
      "em"
    ],
    [
      "éľ",
      "ĩ"
    ],
    [
      "Ġman",
      "ag"
    ],
    [
      "Ġve",
      "get"
    ],
    [
      "Ð",
      "¶"
    ],
    [
      "ing",
      "ton"
    ],
    [
      "ä½į",
      "æĸ¼"
    ],
    [
      "èį",
      "¯"
    ],
    [
      "æĺ",
      "ł"
    ],
    [
      "ä¿",
      "Ĺ"
    ],
    [
      "æĭ",
      "©"
    ],
    [
      "ç¬¬ä¸Ģ",
      "æ¬¡"
    ],
    [
      "ĠC",
      "an"
    ],
    [
      "Ġch",
      "o"
    ],
    [
      "Ġ3",
      "0"
    ],
    [
      "çį²",
      "å¾Ĺ"
    ],
    [
      "a",
      "pp"
    ],
    [
      "b",
      "o"
    ],
    [
      "çİ",
      "ī"
    ],
    [
      "ç¡",
      "¬"
    ],
    [
      "uc",
      "k"
    ],
    [
      "çŁĽ",
      "çĽ¾"
    ],
    [
      "æ±",
      "½"
    ],
    [
      "çĽ¸",
      "åħ³"
    ],
    [
      "é¢Ĩ",
      "å¯¼"
    ],
    [
      "\"",
      ","
    ],
    [
      "å·",
      "¨"
    ],
    [
      "éĿ",
      "Ī"
    ],
    [
      "Ġexper",
      "ience"
    ],
    [
      "æĿĲ",
      "æĸĻ"
    ],
    [
      "å±",
      "ĭ"
    ],
    [
      "è¾",
      "ĸ"
    ],
    [
      "ä¸į",
      "åı¯"
    ],
    [
      "Ġg",
      "round"
    ],
    [
      "æ´",
      "ª"
    ],
    [
      "å½ĵ",
      "æĹ¶"
    ],
    [
      "Ġinv",
      "ol"
    ],
    [
      "æĪĸ",
      "æĺ¯"
    ],
    [
      "è´",
      "Ŀ"
    ],
    [
      "æ¨",
      "ĵ"
    ],
    [
      "çĶ·",
      "æ¼Ķåĵ¡"
    ],
    [
      "Ġs",
      "ell"
    ],
    [
      "å¹",
      "¸"
    ],
    [
      "å¤§",
      "å¤ļ"
    ],
    [
      "åĭ",
      "Ŀ"
    ],
    [
      "è£",
      "Ķ"
    ],
    [
      "è²",
      "¬"
    ],
    [
      "ä¹",
      "Į"
    ],
    [
      "ct",
      "or"
    ],
    [
      "æ²",
      "¿"
    ],
    [
      "3",
      "3"
    ],
    [
      "Ġunt",
      "il"
    ],
    [
      "ĠA",
      "m"
    ],
    [
      "æĿ¥",
      "çļĦ"
    ],
    [
      "å¹¶",
      "ä¸Ķ"
    ],
    [
      "Ġdes",
      "c"
    ],
    [
      "è¿ĺ",
      "æľī"
    ],
    [
      "Ġneed",
      "s"
    ],
    [
      "ç",
      "ŀ"
    ],
    [
      "æİ",
      "Į"
    ],
    [
      "èģ",
      "½"
    ],
    [
      ",",
      "âĢľ"
    ],
    [
      "åĲ",
      "´"
    ],
    [
      "åĳ",
      "¢"
    ],
    [
      "åıĥ",
      "èĢĥ"
    ],
    [
      "Ġhum",
      "an"
    ],
    [
      "Ġ",
      "æľī"
    ],
    [
      "æĢ",
      "¥"
    ],
    [
      "æĴ",
      "Ĵ"
    ],
    [
      "Ġgen",
      "et"
    ],
    [
      "Ġed",
      "uc"
    ],
    [
      "Ġs",
      "w"
    ],
    [
      "Ġor",
      "ig"
    ],
    [
      "Ġcre",
      "ate"
    ],
    [
      "Ġf",
      "r"
    ],
    [
      "éĤĦ",
      "æľī"
    ],
    [
      "ç½Ĺ",
      "æĸ¯"
    ],
    [
      "æĸ",
      "¥"
    ],
    [
      "Ġm",
      "et"
    ],
    [
      "Ġg",
      "rain"
    ],
    [
      "å±",
      "Ĭ"
    ],
    [
      "èĥ½å¤",
      "Ł"
    ],
    [
      "A",
      "N"
    ],
    [
      "Ġc",
      "attle"
    ],
    [
      "Ġf",
      "riend"
    ],
    [
      "Ġn",
      "on"
    ],
    [
      "Ġse",
      "cond"
    ],
    [
      "èħ",
      "³"
    ],
    [
      "é",
      "ŀ"
    ],
    [
      "Ġw",
      "r"
    ],
    [
      "æĺ",
      "Į"
    ],
    [
      "åĪ",
      "ĳ"
    ],
    [
      "ç§ĳ",
      "åŃ¸"
    ],
    [
      "ç·",
      "´"
    ],
    [
      "æ£",
      "Ĵ"
    ],
    [
      "Ġto",
      "get"
    ],
    [
      "ri",
      "pt"
    ],
    [
      "Ġli",
      "k"
    ],
    [
      "Ġtoget",
      "her"
    ],
    [
      "Ġ",
      "ir"
    ],
    [
      "Ġf",
      "ar"
    ],
    [
      "æķ",
      "¦"
    ],
    [
      "ĠN",
      "o"
    ],
    [
      "è¯´",
      "æ³ķ"
    ],
    [
      "éĢŁ",
      "åº¦"
    ],
    [
      "ĠAss",
      "oci"
    ],
    [
      "ä¹",
      "¡"
    ],
    [
      "ur",
      "a"
    ],
    [
      "å»",
      "ī"
    ],
    [
      "éĿ¢",
      "çļĦ"
    ],
    [
      "Ġgrow",
      "th"
    ],
    [
      "Ġmem",
      "bers"
    ],
    [
      ",",
      "ãĢĬ"
    ],
    [
      "å¹",
      "«"
    ],
    [
      "å®",
      "ľ"
    ],
    [
      "Ġm",
      "oney"
    ],
    [
      "ot",
      "s"
    ],
    [
      "èĳ",
      "ī"
    ],
    [
      "Ġdep",
      "end"
    ],
    [
      "c",
      "ul"
    ],
    [
      "Ġt",
      "ru"
    ],
    [
      "Ġd",
      "rought"
    ],
    [
      "Ġen",
      "ough"
    ],
    [
      "ãĢĭ",
      "ãĢĤ"
    ],
    [
      "è½",
      "»"
    ],
    [
      "èİ",
      "±"
    ],
    [
      "èĹĿ",
      "è¡ĵ"
    ],
    [
      "ä¼",
      "´"
    ],
    [
      "Ġ",
      "ä¸į"
    ],
    [
      "re",
      "am"
    ],
    [
      "Ġf",
      "ive"
    ],
    [
      "å°",
      "½"
    ],
    [
      "åĩ",
      "ı"
    ],
    [
      "a",
      "pe"
    ],
    [
      "ĠS",
      "outh"
    ],
    [
      "ĠW",
      "ash"
    ],
    [
      "Ġsu",
      "re"
    ],
    [
      "çı",
      "ł"
    ],
    [
      "Ġsh",
      "ort"
    ],
    [
      "éĢī",
      "æĭ©"
    ],
    [
      "p",
      "ect"
    ],
    [
      "åĬ",
      "ª"
    ],
    [
      "æ¸",
      "Ľ"
    ],
    [
      "res",
      "h"
    ],
    [
      "æĤ",
      "£"
    ],
    [
      "e",
      "y"
    ],
    [
      "ĠW",
      "orld"
    ],
    [
      "ĠO",
      "ne"
    ],
    [
      "ĠIn",
      "st"
    ],
    [
      "çĦ¡",
      "æ³ķ"
    ],
    [
      "Ġprof",
      "ess"
    ],
    [
      "è",
      "¹"
    ],
    [
      "Ġf",
      "ull"
    ],
    [
      "ç¨",
      "ħ"
    ],
    [
      "Ġconc",
      "ern"
    ],
    [
      "p",
      "ar"
    ],
    [
      "åıĸ",
      "å¾Ĺ"
    ],
    [
      "æĪ",
      "Ģ"
    ],
    [
      "Ġ1",
      "00"
    ],
    [
      "ur",
      "y"
    ],
    [
      "Ġas",
      "k"
    ],
    [
      "éĺ",
      "¶"
    ],
    [
      "ä¹Ł",
      "ä¸į"
    ],
    [
      "æ§",
      "į"
    ],
    [
      "A",
      "T"
    ],
    [
      "èĬ",
      "¬"
    ],
    [
      "it",
      "ive"
    ],
    [
      "åľĭ",
      "æ°ĳ"
    ],
    [
      "Ġtechn",
      "ology"
    ],
    [
      "åĪ¶",
      "åº¦"
    ],
    [
      "é®",
      "®"
    ],
    [
      "Ġ",
      "et"
    ],
    [
      "on",
      "es"
    ],
    [
      "Ġm",
      "eth"
    ],
    [
      "Ġg",
      "ive"
    ],
    [
      "å¿ħ",
      "éłĪ"
    ],
    [
      "d",
      "e"
    ],
    [
      "n",
      "ers"
    ],
    [
      "Ġ",
      "ãĢĤ"
    ],
    [
      "æĭ",
      "Ľ"
    ],
    [
      "å¦",
      "ĥ"
    ],
    [
      "un",
      "e"
    ],
    [
      "æĮĩ",
      "ä»¤"
    ],
    [
      "Ġev",
      "ent"
    ],
    [
      "éĬ",
      "Ģ"
    ],
    [
      "Ġty",
      "p"
    ],
    [
      "Ġle",
      "ft"
    ],
    [
      "éº",
      "¥"
    ],
    [
      "åħ§",
      "å®¹"
    ],
    [
      "åħ©",
      "åĢĭ"
    ],
    [
      "Ġpartic",
      "ular"
    ],
    [
      "å·¥",
      "ä¸ļ"
    ],
    [
      "ç§ĳ",
      "æĬĢ"
    ],
    [
      "r",
      "ist"
    ],
    [
      "å°ı",
      "èªª"
    ],
    [
      "Ġt",
      "alk"
    ],
    [
      "Ġcom",
      "b"
    ],
    [
      "æĸĩ",
      "çĮ®"
    ],
    [
      "æĸ°",
      "éĹ»"
    ],
    [
      "ere",
      "n"
    ],
    [
      "or",
      "ies"
    ],
    [
      "æ´",
      "Ĺ"
    ],
    [
      "æĴ",
      "¤"
    ],
    [
      "å°",
      "¾"
    ],
    [
      "ater",
      "ial"
    ],
    [
      "er",
      "o"
    ],
    [
      "å¢",
      "¨"
    ],
    [
      "ver",
      "t"
    ],
    [
      "éĩį",
      "æĸ°"
    ],
    [
      "Ġcomp",
      "anies"
    ],
    [
      "Ġen",
      "s"
    ],
    [
      "it",
      "or"
    ],
    [
      "Ġto",
      "t"
    ],
    [
      "åĬł",
      "æĭ¿"
    ],
    [
      "Ġimpro",
      "ve"
    ],
    [
      "Ñ",
      "Ī"
    ],
    [
      "åŃ",
      "Ŀ"
    ],
    [
      "çĶ¨",
      "äºİ"
    ],
    [
      "ä¹ĭ",
      "éĸĵ"
    ],
    [
      "éĺ",
      "µ"
    ],
    [
      "æ¢",
      "ģ"
    ],
    [
      "æŃĲ",
      "æ´²"
    ],
    [
      "ĠâĢ",
      "ĺ"
    ],
    [
      "Ġå¤ĸ",
      "éĥ¨"
    ],
    [
      "Ñ",
      "Ĩ"
    ],
    [
      "åĿ",
      "¡"
    ],
    [
      "Ð¾Ð",
      "´"
    ],
    [
      "æ·",
      "·"
    ],
    [
      "äº§",
      "åĵģ"
    ],
    [
      "ä»Ĭ",
      "å¤©"
    ],
    [
      "åħ±åĴĮ",
      "åľĭ"
    ],
    [
      "ĠRes",
      "earch"
    ],
    [
      "d",
      "en"
    ],
    [
      "Ġb",
      "ased"
    ],
    [
      "éĽ",
      "ľ"
    ],
    [
      "åĮĹ",
      "å¸Ĥ"
    ],
    [
      "av",
      "or"
    ],
    [
      "å¼ķ",
      "èµ·"
    ],
    [
      "Ġke",
      "y"
    ],
    [
      "å®",
      "«"
    ],
    [
      "t",
      "ain"
    ],
    [
      "Ġa",
      "ir"
    ],
    [
      "æł",
      "ĳ"
    ],
    [
      "æ¼",
      "¸"
    ],
    [
      "ĠThe",
      "se"
    ],
    [
      "çĴ°",
      "å¢ĥ"
    ],
    [
      "Ġposs",
      "ible"
    ],
    [
      "O",
      "S"
    ],
    [
      "çŃ",
      "¾"
    ],
    [
      "ĠM",
      "ay"
    ],
    [
      "å¦",
      "»"
    ],
    [
      "iv",
      "id"
    ],
    [
      "è§Ĵ",
      "èī²"
    ],
    [
      "Ġdem",
      "and"
    ],
    [
      "å®",
      "¿"
    ],
    [
      "ed",
      "eral"
    ],
    [
      "åĪ",
      "Ĭ"
    ],
    [
      "åº",
      "Ĩ"
    ],
    [
      "Ġ1",
      "4"
    ],
    [
      "3",
      "1"
    ],
    [
      "19",
      "0"
    ],
    [
      "éĥ½",
      "æľī"
    ],
    [
      "ç¤",
      "¼"
    ],
    [
      "rib",
      "ut"
    ],
    [
      "Ĥ",
      "çļĦ"
    ],
    [
      "al",
      "es"
    ],
    [
      "åº",
      "Ĭ"
    ],
    [
      "å¨",
      "ľ"
    ],
    [
      "è¿Ļä¸ª",
      "éĹ®é¢ĺ"
    ],
    [
      "éĩįè¦ģ",
      "çļĦ"
    ],
    [
      "éĽ",
      "¶"
    ],
    [
      "ĠCount",
      "y"
    ],
    [
      "ad",
      "os"
    ],
    [
      "è¾",
      "²"
    ],
    [
      "Ġex",
      "ist"
    ],
    [
      "éĢļ",
      "éģİ"
    ],
    [
      "è°",
      "Ī"
    ],
    [
      "é¦ĸ",
      "æ¬¡"
    ],
    [
      "c",
      "n"
    ],
    [
      "æĬ",
      "µ"
    ],
    [
      "æ±",
      "ł"
    ],
    [
      "og",
      "ra"
    ],
    [
      "erv",
      "ation"
    ],
    [
      "ĠUS",
      "DA"
    ],
    [
      "éİ",
      "®"
    ],
    [
      "Ġc",
      "amp"
    ],
    [
      "çĲĨ",
      "è®º"
    ],
    [
      "ç¯",
      "ī"
    ],
    [
      "Ġgl",
      "obal"
    ],
    [
      "Ġdise",
      "ase"
    ],
    [
      "as",
      "ing"
    ],
    [
      "ill",
      "s"
    ],
    [
      "åķ",
      "Ĭ"
    ],
    [
      "åħ³",
      "äºİ"
    ],
    [
      "Ġstud",
      "y"
    ],
    [
      "å¾",
      "Ĳ"
    ],
    [
      "éĢĻ",
      "æ¨£"
    ],
    [
      "å»º",
      "è®¾"
    ],
    [
      "æĻĤ",
      "ä»£"
    ],
    [
      "é¼",
      "ĵ"
    ],
    [
      "f",
      "ect"
    ],
    [
      "ent",
      "ion"
    ],
    [
      "ver",
      "age"
    ],
    [
      "èĤ",
      "¯"
    ],
    [
      "Ġcomm",
      "on"
    ],
    [
      "é¬",
      "¥"
    ],
    [
      "7",
      "5"
    ],
    [
      "Ġt",
      "rain"
    ],
    [
      "ä¸Ń",
      "æĸĩ"
    ],
    [
      "æĭ",
      "¥"
    ],
    [
      "Ġex",
      "c"
    ],
    [
      "ç¡",
      "Ģ"
    ],
    [
      "ç¹",
      "ģ"
    ],
    [
      "I",
      "S"
    ],
    [
      "u",
      "f"
    ],
    [
      "Ġs",
      "ocial"
    ],
    [
      "å°",
      "º"
    ],
    [
      "åŁ",
      "¹"
    ],
    [
      "ci",
      "ally"
    ],
    [
      "èĭ±",
      "æĸĩ"
    ],
    [
      "éĽ»",
      "èħ¦"
    ],
    [
      "æ¶",
      "ī"
    ],
    [
      "3",
      "8"
    ],
    [
      "u",
      "ff"
    ],
    [
      "z",
      "a"
    ],
    [
      "ra",
      "g"
    ],
    [
      "ĠAfric",
      "a"
    ],
    [
      "w",
      "ork"
    ],
    [
      "Ġl",
      "ove"
    ],
    [
      "éł",
      "Ĩ"
    ],
    [
      "ä¼ģ",
      "ä¸ļ"
    ],
    [
      "A",
      "S"
    ],
    [
      "Ġbe",
      "h"
    ],
    [
      "åŁº",
      "ç¡Ģ"
    ],
    [
      "Ġspec",
      "ific"
    ],
    [
      "ĠHow",
      "ever"
    ],
    [
      ".",
      "âĢľ"
    ],
    [
      "Ġ",
      "åĴĮ"
    ],
    [
      "Ġ",
      "..."
    ],
    [
      "èĩª",
      "æ²»"
    ],
    [
      "Ġ5",
      "0"
    ],
    [
      "æĪĲ",
      "çļĦ"
    ],
    [
      "Ġag",
      "o"
    ],
    [
      "Ġd",
      "one"
    ],
    [
      "Ġh",
      "ig"
    ],
    [
      "éł",
      "ģ"
    ],
    [
      "åħ",
      "ģ"
    ],
    [
      "å¼",
      "±"
    ],
    [
      "ĠL",
      "e"
    ],
    [
      "çģ",
      "µ"
    ],
    [
      "åĨ³",
      "å®ļ"
    ],
    [
      "Ġb",
      "illion"
    ],
    [
      "Ġy",
      "ield"
    ],
    [
      "åĩ",
      "¡"
    ],
    [
      "å¤©",
      "çļĩ"
    ],
    [
      "Ġacc",
      "ording"
    ],
    [
      "it",
      "i"
    ],
    [
      "äºĨ",
      "è§£"
    ],
    [
      "åįģ",
      "äºĮ"
    ],
    [
      "Ġl",
      "ight"
    ],
    [
      "Ġde",
      "b"
    ],
    [
      "æ´",
      "ŀ"
    ],
    [
      "Ġ",
      "æĿİ"
    ],
    [
      "åĽ½",
      "åĬ¡"
    ],
    [
      "çŁ",
      "©"
    ],
    [
      "å¸Ĥ",
      "åľº"
    ],
    [
      "Ġ",
      "er"
    ],
    [
      "ä¸ĭ",
      "çļĦ"
    ],
    [
      "Ġfarm",
      "er"
    ],
    [
      "åŃ©",
      "åŃĲ"
    ],
    [
      "y",
      "m"
    ],
    [
      "Ġm",
      "at"
    ],
    [
      "Ġg",
      "reen"
    ],
    [
      "é£",
      "¾"
    ],
    [
      "æ¯Ķ",
      "è¼ĥ"
    ],
    [
      "ç²",
      "ī"
    ],
    [
      "å®¹",
      "æĺĵ"
    ],
    [
      "c",
      "il"
    ],
    [
      "Ġ",
      "Ñĩ"
    ],
    [
      "æ¨¡",
      "å¼ı"
    ],
    [
      "è³ĩ",
      "è¨Ĭ"
    ],
    [
      "æĹ¢",
      "çĦ¶"
    ],
    [
      "Ġ",
      "éĺ¿"
    ],
    [
      "le",
      "x"
    ],
    [
      "ĠA",
      "pp"
    ],
    [
      "éŃ",
      "ļ"
    ],
    [
      "çĨ",
      "Ł"
    ],
    [
      "é¨",
      "İ"
    ],
    [
      "Ð°",
      "Ðº"
    ],
    [
      "Ġlear",
      "n"
    ],
    [
      "å¿ħ",
      "é¡»"
    ],
    [
      "Ġph",
      "ot"
    ],
    [
      "%",
      "ãĢĤ"
    ],
    [
      "è®",
      "¢"
    ],
    [
      "è±",
      "Ĳ"
    ],
    [
      "è½¯",
      "ä»¶"
    ],
    [
      "æİ",
      "ī"
    ],
    [
      "ä½¿",
      "å¾Ĺ"
    ],
    [
      "çĽ®",
      "çļĦ"
    ],
    [
      "ä¸Ģ",
      "æ¨£"
    ],
    [
      "ç¾",
      "½"
    ],
    [
      "Ġper",
      "form"
    ],
    [
      "åģ¥",
      "åº·"
    ],
    [
      "Ġt",
      "en"
    ],
    [
      "ç¬",
      "ĳ"
    ],
    [
      "Ġex",
      "port"
    ],
    [
      "åĮĸ",
      "çļĦ"
    ],
    [
      "çľŁ",
      "çļĦ"
    ],
    [
      "çĥ",
      "ı"
    ],
    [
      "Ġfru",
      "it"
    ],
    [
      "c",
      "he"
    ],
    [
      "u",
      "ment"
    ],
    [
      "è¨",
      "İ"
    ],
    [
      "åĿ",
      "Ģ"
    ],
    [
      "Ġac",
      "res"
    ],
    [
      "å¼Ģ",
      "åıĳ"
    ],
    [
      "æ¨¡",
      "ç³Ĭ"
    ],
    [
      "Ġsci",
      "ent"
    ],
    [
      "u",
      "el"
    ],
    [
      "is",
      "ing"
    ],
    [
      "çĤ",
      "İ"
    ],
    [
      "å®ĥ",
      "çļĦ"
    ],
    [
      "è¶Ĭ",
      "åįĹ"
    ],
    [
      "Ġmod",
      "el"
    ],
    [
      "æĽ",
      "¿"
    ],
    [
      "èĪ",
      "Ĵ"
    ],
    [
      "ĠE",
      "ng"
    ],
    [
      "ç¾İ",
      "åħĥ"
    ],
    [
      "Ġut",
      "iliz"
    ],
    [
      "Ġo",
      "cc"
    ],
    [
      "Ġm",
      "en"
    ],
    [
      "éĥ",
      "µ"
    ],
    [
      "Ġgrow",
      "ers"
    ],
    [
      "ww",
      "w"
    ],
    [
      "åī",
      "Ľ"
    ],
    [
      "æľª",
      "è¢«"
    ],
    [
      "æĢ»",
      "ç»Ł"
    ],
    [
      "Ġiss",
      "ues"
    ],
    [
      "Ġm",
      "us"
    ],
    [
      "æľī",
      "äºĽ"
    ],
    [
      "è¯",
      "Ĺ"
    ],
    [
      "å¤§",
      "äºĭè®°"
    ],
    [
      "Ġv",
      "ol"
    ],
    [
      "çĶ¢",
      "åĵģ"
    ],
    [
      "éĻĦ",
      "è¿ĳ"
    ],
    [
      "t",
      "w"
    ],
    [
      "Ġh",
      "t"
    ],
    [
      "çİĭ",
      "åĽ½"
    ],
    [
      "3",
      "4"
    ],
    [
      "et",
      "ies"
    ],
    [
      "le",
      "ment"
    ],
    [
      "åĪ°",
      "çļĦ"
    ],
    [
      "éĢĻ",
      "ç¨®"
    ],
    [
      "Ġme",
      "ans"
    ],
    [
      "Ġpued",
      "e"
    ],
    [
      "Ġs",
      "i"
    ],
    [
      "Ġg",
      "re"
    ],
    [
      "éģ",
      "į"
    ],
    [
      "ad",
      "es"
    ],
    [
      "åģ",
      "ı"
    ],
    [
      "çİ°",
      "ä»£"
    ],
    [
      "Ġother",
      "s"
    ],
    [
      "åĬłæĭ¿",
      "å¤§"
    ],
    [
      "I",
      "C"
    ],
    [
      "an",
      "e"
    ],
    [
      "çŃī",
      "äºİ"
    ],
    [
      "ric",
      "t"
    ],
    [
      "éĶ",
      "Ļ"
    ],
    [
      "Ġaw",
      "ay"
    ],
    [
      "å¿½",
      "çķ¥"
    ],
    [
      "it",
      "ing"
    ],
    [
      "æľª",
      "çŁ¥"
    ],
    [
      "o",
      "ber"
    ],
    [
      "Ġon",
      "line"
    ],
    [
      "åĨĽ",
      "äºĭ"
    ],
    [
      "Ġpric",
      "e"
    ],
    [
      "åľ¨",
      "åĵª"
    ],
    [
      "å¼",
      "Ĥ"
    ],
    [
      "ra",
      "w"
    ],
    [
      "çĶµ",
      "åŃĲ"
    ],
    [
      "å§Ķ",
      "åĵ¡"
    ],
    [
      "æ´",
      "¥"
    ],
    [
      "çĽ¸",
      "åĲĮ"
    ],
    [
      "åįģ",
      "åĪĨ"
    ],
    [
      "Ġ200",
      "9"
    ],
    [
      "Ġt",
      "imes"
    ],
    [
      "Ġd",
      "om"
    ],
    [
      "as",
      "ter"
    ],
    [
      "om",
      "m"
    ],
    [
      "åĩº",
      "çļĦ"
    ],
    [
      "Ġk",
      "ind"
    ],
    [
      "Ã©",
      "s"
    ],
    [
      "Ġ",
      "ident"
    ],
    [
      "åħ¬",
      "åħ±"
    ],
    [
      "row",
      "n"
    ],
    [
      "Ġval",
      "ue"
    ],
    [
      "è»Ł",
      "é«Ķ"
    ],
    [
      "å®",
      "¡"
    ],
    [
      "her",
      "n"
    ],
    [
      "åıª",
      "è¦ģ"
    ],
    [
      "è§£",
      "æĶ¾"
    ],
    [
      "æ¹",
      "ĺ"
    ],
    [
      "3",
      "7"
    ],
    [
      "Ġto",
      "m"
    ],
    [
      "åĬ",
      "į"
    ],
    [
      "åħĭ",
      "æĸ¯"
    ],
    [
      "og",
      "n"
    ],
    [
      "Ð¾Ð",
      "¹"
    ],
    [
      "Ġspec",
      "ies"
    ],
    [
      "i",
      "od"
    ],
    [
      "m",
      "ed"
    ],
    [
      "Ġo",
      "pt"
    ],
    [
      "åĽ",
      "°"
    ],
    [
      "æŃ",
      "¸"
    ],
    [
      "å¿",
      "ł"
    ],
    [
      "end",
      "ed"
    ],
    [
      "Ġcomp",
      "et"
    ],
    [
      "av",
      "es"
    ],
    [
      "Ġlook",
      "ing"
    ],
    [
      "o",
      "f"
    ],
    [
      "ä½",
      "Ķ"
    ],
    [
      "åĬ",
      "³"
    ],
    [
      "æ¬",
      "¢"
    ],
    [
      "are",
      "nt"
    ],
    [
      "å°",
      "ĭ"
    ],
    [
      "ä¸º",
      "äºĨ"
    ],
    [
      "U",
      "n"
    ],
    [
      "m",
      "ost"
    ],
    [
      "er",
      "c"
    ],
    [
      "ĠG",
      "r"
    ],
    [
      "ci",
      "p"
    ],
    [
      "èĻ",
      "½"
    ],
    [
      "è¼",
      "ª"
    ],
    [
      "èĳĹ",
      "ä½ľ"
    ],
    [
      "æĶ¹",
      "éĿ©"
    ],
    [
      "é¤",
      "ĺ"
    ],
    [
      "ç»ĵ",
      "è®º"
    ],
    [
      "æłĩ",
      "åĩĨ"
    ],
    [
      "Ġstr",
      "ong"
    ],
    [
      "çį¨",
      "ç«ĭ"
    ],
    [
      "è³",
      "¼"
    ],
    [
      "éľ",
      "į"
    ],
    [
      "Ġgrow",
      "n"
    ],
    [
      "Ġchild",
      "ren"
    ],
    [
      "Ġ",
      "åĽ½çİĭ"
    ],
    [
      "ant",
      "o"
    ],
    [
      "æıĲ",
      "é«ĺ"
    ],
    [
      "Ġtr",
      "ade"
    ],
    [
      "Ġdid",
      "n"
    ],
    [
      "`",
      "`"
    ],
    [
      "y",
      "l"
    ],
    [
      "æĿ",
      "¨"
    ],
    [
      "ore",
      "d"
    ],
    [
      "éĲ",
      "ĺ"
    ],
    [
      "Ġ",
      "ÑĤ"
    ],
    [
      "re",
      "nd"
    ],
    [
      "Ġf",
      "ert"
    ],
    [
      "è´",
      "¢"
    ],
    [
      "çĭ¬",
      "ç«ĭ"
    ],
    [
      "ä¸Ńèı¯",
      "æ°ĳåľĭ"
    ],
    [
      "a",
      "ut"
    ],
    [
      "u",
      "est"
    ],
    [
      "E",
      "N"
    ],
    [
      "Ġm",
      "akes"
    ],
    [
      "åĳ",
      "Ī"
    ],
    [
      "å¾Į",
      "ä¾Ĩ"
    ],
    [
      "Ġserv",
      "ice"
    ],
    [
      "Ġcontin",
      "ue"
    ],
    [
      "9",
      "9"
    ],
    [
      "åħ",
      "Ħ"
    ],
    [
      "åŃ",
      "Ķ"
    ],
    [
      "èį",
      "£"
    ],
    [
      "æ¦",
      "®"
    ],
    [
      "ot",
      "a"
    ],
    [
      "åĨ",
      "ł"
    ],
    [
      "éĺ",
      "»"
    ],
    [
      "å»º",
      "ç¯ī"
    ],
    [
      "Ġht",
      "tp"
    ],
    [
      "en",
      "cy"
    ],
    [
      "ä¹",
      "ĥ"
    ],
    [
      "å¸",
      "®"
    ],
    [
      "Ñģ",
      "Ñı"
    ],
    [
      "ĠWash",
      "ington"
    ],
    [
      "äº",
      "¿"
    ],
    [
      "Ġm",
      "aterial"
    ],
    [
      "æ³",
      "½"
    ],
    [
      "åĨĽ",
      "åĮº"
    ],
    [
      "Ġrec",
      "ord"
    ],
    [
      "åħ",
      "»"
    ],
    [
      "Ġm",
      "ag"
    ],
    [
      "Ġth",
      "ing"
    ],
    [
      "Ġwh",
      "y"
    ],
    [
      "Ġsu",
      "per"
    ],
    [
      "åľŁ",
      "èĢ³"
    ],
    [
      "Ġc",
      "r"
    ],
    [
      "Ġh",
      "old"
    ],
    [
      "ĠCh",
      "ina"
    ],
    [
      "ç²¾",
      "ç¥ŀ"
    ],
    [
      "èīº",
      "æľ¯"
    ],
    [
      "åľŁèĢ³",
      "åħ¶"
    ],
    [
      "6",
      "8"
    ],
    [
      "Ġs",
      "el"
    ],
    [
      "åĩ",
      "½"
    ],
    [
      "ur",
      "ity"
    ],
    [
      "çĲĨ",
      "è«ĸ"
    ],
    [
      "Ġsystem",
      "s"
    ],
    [
      "in",
      "ation"
    ],
    [
      "Ġde",
      "v"
    ],
    [
      "Ġal",
      "ong"
    ],
    [
      "æĩ",
      "·"
    ],
    [
      "å®ŀ",
      "éªĮ"
    ],
    [
      "y",
      "le"
    ],
    [
      "èĩ",
      "¨"
    ],
    [
      "Ġch",
      "ar"
    ],
    [
      "å¹³",
      "åĿĩ"
    ],
    [
      "v",
      "ious"
    ],
    [
      "çĤ",
      "¸"
    ],
    [
      "Ġ2",
      "5"
    ],
    [
      "or",
      "g"
    ],
    [
      "Ġle",
      "ast"
    ],
    [
      "Ġ",
      "æĺ¯"
    ],
    [
      "æĻ",
      "¶"
    ],
    [
      "è¾",
      "Ľ"
    ],
    [
      "æ¥",
      "¼"
    ],
    [
      "ient",
      "o"
    ],
    [
      "Ġar",
      "t"
    ],
    [
      "ç¶²",
      "è·¯"
    ],
    [
      "äºº",
      "åĳĺ"
    ],
    [
      "ĠC",
      "ont"
    ],
    [
      "çĽ",
      "£"
    ],
    [
      "éĽ",
      "²"
    ],
    [
      "Ġst",
      "ory"
    ],
    [
      "Ġan",
      "al"
    ],
    [
      "ate",
      "g"
    ],
    [
      "è¢",
      "ĸ"
    ],
    [
      "ä¸",
      "°"
    ],
    [
      "å½",
      "¼"
    ],
    [
      "æ®",
      "Ĭ"
    ],
    [
      "Ġget",
      "ting"
    ],
    [
      "ĠPro",
      "gram"
    ],
    [
      "Ġc",
      "ertain"
    ],
    [
      "ä½",
      "Ī"
    ],
    [
      "ĠM",
      "r"
    ],
    [
      "éľĢ",
      "æ±Ĥ"
    ],
    [
      "ç°",
      "½"
    ],
    [
      "Ġstart",
      "ed"
    ],
    [
      "è¡",
      "¡"
    ],
    [
      "ä¿",
      "ĥ"
    ],
    [
      "æ¼«",
      "çķ«"
    ],
    [
      "n",
      "es"
    ],
    [
      "çı¾",
      "ä»£"
    ],
    [
      "ĠV",
      "al"
    ],
    [
      "Ġw",
      "rit"
    ],
    [
      "Ġe",
      "ver"
    ],
    [
      "è£",
      "ģ"
    ],
    [
      "Ġapp",
      "lic"
    ],
    [
      "æıı",
      "è¿°"
    ],
    [
      "Ġrepres",
      "ent"
    ],
    [
      "m",
      "ber"
    ],
    [
      "æĪ",
      "´"
    ],
    [
      "il",
      "ar"
    ],
    [
      "Ġg",
      "ame"
    ],
    [
      "ä½ľ",
      "èĢħ"
    ],
    [
      "çī¹",
      "èī²"
    ],
    [
      "ç³",
      "ĸ"
    ],
    [
      "ire",
      "d"
    ],
    [
      "Ġca",
      "us"
    ],
    [
      "äºº",
      "é¡ŀ"
    ],
    [
      "æį",
      "·"
    ],
    [
      "åħĥ",
      "ç´ł"
    ],
    [
      "Ġdo",
      "ing"
    ],
    [
      "å®ĺ",
      "æĸ¹"
    ],
    [
      "u",
      "y"
    ],
    [
      "Ġm",
      "ult"
    ],
    [
      "æĥħ",
      "æ³ģ"
    ],
    [
      "éĢ²",
      "åħ¥"
    ],
    [
      "åįļçī©",
      "é¤¨"
    ],
    [
      "is",
      "c"
    ],
    [
      "Ġb",
      "ar"
    ],
    [
      "æľī",
      "éĻĲ"
    ],
    [
      "Ġcom",
      "es"
    ],
    [
      "åĪ©",
      "äºļ"
    ],
    [
      "èĮ",
      "¨"
    ],
    [
      "èµĦ",
      "æºĲ"
    ],
    [
      "t",
      "a"
    ],
    [
      "æľĢ",
      "æĹ©"
    ],
    [
      "æ±º",
      "å®ļ"
    ],
    [
      "åŃ¦",
      "çĶŁ"
    ],
    [
      "our",
      "s"
    ],
    [
      "è¶ħ",
      "åĩº"
    ],
    [
      "Ġseed",
      "s"
    ],
    [
      "Ġmeth",
      "od"
    ],
    [
      "Ġt",
      "u"
    ],
    [
      "ĠC",
      "ar"
    ],
    [
      "æ¯",
      "«"
    ],
    [
      "åķ",
      "Ł"
    ],
    [
      "è«",
      "¸"
    ],
    [
      "é½",
      "Ĭ"
    ],
    [
      "Ġanim",
      "al"
    ],
    [
      "é£¯",
      "åºĹ"
    ],
    [
      "Ġam",
      "ong"
    ],
    [
      "Ġreg",
      "ion"
    ],
    [
      "Ġpot",
      "ential"
    ],
    [
      "æĭ",
      "ħ"
    ],
    [
      "ĠW",
      "est"
    ],
    [
      "Ġres",
      "ources"
    ],
    [
      "ç©º",
      "éĹ´"
    ],
    [
      "ä¼Ĭ",
      "æĸ¯"
    ],
    [
      "Ġpol",
      "icy"
    ],
    [
      "3",
      "2"
    ],
    [
      "Ġ",
      "ver"
    ],
    [
      "Ġstud",
      "ents"
    ],
    [
      "Ġ",
      "å¦Ĥæŀľ"
    ],
    [
      "Ġh",
      "alf"
    ],
    [
      "ä¸į",
      "åºĶè¯¥"
    ],
    [
      "ä¼",
      "¤"
    ],
    [
      "è¦",
      "½"
    ],
    [
      "9",
      "8"
    ],
    [
      "p",
      "ro"
    ],
    [
      "Ġt",
      "ell"
    ],
    [
      "çļĦ",
      "å°ı"
    ],
    [
      "ä¸Ģ",
      "æŃ¥"
    ],
    [
      "éģ",
      "º"
    ],
    [
      "å®¶",
      "åºŃ"
    ],
    [
      "Ġv",
      "ide"
    ],
    [
      "æľĢ",
      "åĲİ"
    ],
    [
      "çĸ",
      "Ĺ"
    ],
    [
      "æĩī",
      "è©²"
    ],
    [
      "ç¤¾ä¼ļ",
      "ä¸»ä¹ī"
    ],
    [
      "æĺ¯",
      "çĶ±"
    ],
    [
      "çĽ",
      "¡"
    ],
    [
      "ĠB",
      "r"
    ],
    [
      "åĳ½",
      "é¢ĺ"
    ],
    [
      "Ġsoy",
      "be"
    ],
    [
      "æľĢ",
      "å¤§çļĦ"
    ],
    [
      "çĽ´",
      "åĪ°"
    ],
    [
      "è£½",
      "ä½ľ"
    ],
    [
      "m",
      "ical"
    ],
    [
      "ãĢ",
      "Ĳ"
    ],
    [
      "Ġc",
      "reat"
    ],
    [
      "è¿",
      "·"
    ],
    [
      "Ġne",
      "ar"
    ],
    [
      "åĽ½å®¶",
      "çº§"
    ],
    [
      "è´¨",
      "éĩı"
    ],
    [
      "Ġbr",
      "ing"
    ],
    [
      "åĶ¯",
      "ä¸Ģ"
    ],
    [
      "èĪ",
      "Ĭ"
    ],
    [
      "ĠÐ",
      "±"
    ],
    [
      "æĵģ",
      "æľī"
    ],
    [
      "ãĢ",
      "ĳ"
    ],
    [
      "çļĦ",
      "äºĭ"
    ],
    [
      "Ġc",
      "ase"
    ],
    [
      "çī¹",
      "åĪ«"
    ],
    [
      "Ġwor",
      "d"
    ],
    [
      "åıªæľī",
      "ä¸Ģä¸ª"
    ],
    [
      "at",
      "ors"
    ],
    [
      "Ġd",
      "ri"
    ],
    [
      "å¯¼",
      "èĩ´"
    ],
    [
      "ä¸Ńåįİ",
      "äººæ°ĳåħ±åĴĮåĽ½"
    ],
    [
      "p",
      "o"
    ],
    [
      "Ġ",
      "ãĢĮ"
    ],
    [
      "Ġp",
      "ress"
    ],
    [
      "ĠM",
      "e"
    ],
    [
      "est",
      "s"
    ],
    [
      "Ġor",
      "der"
    ],
    [
      "æķĻ",
      "æİĪ"
    ],
    [
      "æ©",
      "ĭ"
    ],
    [
      "Ġo",
      "t"
    ],
    [
      "å·",
      "§"
    ],
    [
      "ä¹Ł",
      "åı¯ä»¥"
    ],
    [
      "æĹ©",
      "æľŁ"
    ],
    [
      "Ġris",
      "k"
    ],
    [
      "g",
      "r"
    ],
    [
      "ic",
      "ient"
    ],
    [
      "Ġn",
      "ame"
    ],
    [
      "å¥",
      "ī"
    ],
    [
      "ä¹ĭ",
      "å¤ĸ"
    ],
    [
      "Ġyou",
      "ng"
    ],
    [
      "çĽ¸",
      "çķ¶"
    ],
    [
      "å¥¥",
      "æĸ¯"
    ],
    [
      "w",
      "are"
    ],
    [
      "ä¸Ģ",
      "ç§į"
    ],
    [
      "ĠG",
      "M"
    ],
    [
      "åħ¨",
      "éĥ¨"
    ],
    [
      "æľŁ",
      "éĸĵ"
    ],
    [
      "ak",
      "en"
    ],
    [
      "Ġoff",
      "er"
    ],
    [
      "éĶ",
      "Ģ"
    ],
    [
      "Ġf",
      "all"
    ],
    [
      "im",
      "ent"
    ],
    [
      "Ġ-",
      "-"
    ],
    [
      "æĸŃ",
      "è¨Ģ"
    ],
    [
      "èĻķ",
      "çĲĨ"
    ],
    [
      "Ġresp",
      "ons"
    ],
    [
      "Ġtre",
      "es"
    ],
    [
      "ĠServ",
      "ice"
    ],
    [
      "åľ¨åĵª",
      "éĩĮ"
    ],
    [
      "Ġt",
      "ax"
    ],
    [
      "è£",
      "ľ"
    ],
    [
      "æľº",
      "æŀĦ"
    ],
    [
      "çµĲ",
      "æŀľ"
    ],
    [
      "çļĦåľ°",
      "æĸ¹"
    ],
    [
      "n",
      "ov"
    ],
    [
      "ar",
      "o"
    ],
    [
      "è®",
      "²"
    ],
    [
      "Ġst",
      "ep"
    ],
    [
      "åİ",
      "ļ"
    ],
    [
      "æ¨",
      "¹"
    ],
    [
      "ĠG",
      "en"
    ],
    [
      "åĸ",
      "¬"
    ],
    [
      "éģİ",
      "ç¨ĭ"
    ],
    [
      "Ġ200",
      "8"
    ],
    [
      "å°İ",
      "æ¼Ķ"
    ],
    [
      "Ġener",
      "gy"
    ],
    [
      "ãĢ",
      "ı"
    ],
    [
      "at",
      "ures"
    ],
    [
      "ac",
      "es"
    ],
    [
      "è£",
      "ı"
    ],
    [
      "Ð»",
      "Ñı"
    ],
    [
      "ĠAssoci",
      "ation"
    ],
    [
      "E",
      "S"
    ],
    [
      "ä»",
      "°"
    ],
    [
      "Ġm",
      "id"
    ],
    [
      "ä¸º",
      "çľŁ"
    ],
    [
      "æº",
      "ª"
    ],
    [
      "Ġme",
      "as"
    ],
    [
      "Ġpr",
      "im"
    ],
    [
      "Ġpres",
      "ident"
    ],
    [
      "ä¸Ģ",
      "ä¸ĭ"
    ],
    [
      "æī",
      "©"
    ],
    [
      "è¼",
      "¯"
    ],
    [
      "Ġem",
      "ploy"
    ],
    [
      "éĻĲ",
      "åĪ¶"
    ],
    [
      "Ġto",
      "ol"
    ],
    [
      "åº",
      "Ħ"
    ],
    [
      "èĪ",
      "°"
    ],
    [
      "and",
      "s"
    ],
    [
      "Ġv",
      "iew"
    ],
    [
      "Ġha",
      "ving"
    ],
    [
      "art",
      "h"
    ],
    [
      "ure",
      "d"
    ],
    [
      "Ð¸",
      "Ð¼"
    ],
    [
      "ä½ł",
      "æĢİä¹Ī"
    ],
    [
      "ä¼ł",
      "éĹ»"
    ],
    [
      "s",
      "ide"
    ],
    [
      "Ġ",
      ">"
    ],
    [
      "Ġl",
      "iv"
    ],
    [
      "Ġth",
      "ought"
    ],
    [
      "å¤§",
      "éĻ¸"
    ],
    [
      "ĠS",
      "ci"
    ],
    [
      "20",
      "00"
    ],
    [
      "ere",
      "nce"
    ],
    [
      "ient",
      "s"
    ],
    [
      "Ġlos",
      "s"
    ],
    [
      "åħį",
      "çĸ«"
    ],
    [
      "Ġacc",
      "ount"
    ],
    [
      "æĨ",
      "²"
    ],
    [
      "åŃ¸",
      "çĶŁ"
    ],
    [
      "ĠO",
      "ff"
    ],
    [
      "è¿Ľ",
      "åħ¥"
    ],
    [
      "Ġrem",
      "ain"
    ],
    [
      "ä»į",
      "çĦ¶"
    ],
    [
      "c",
      "ing"
    ],
    [
      "ãĢ",
      "İ"
    ],
    [
      "Ġo",
      "il"
    ],
    [
      "çĩ",
      "ĥ"
    ],
    [
      "æĺ¯ä¸Ģ",
      "ç§į"
    ],
    [
      "ĠD",
      "es"
    ],
    [
      "th",
      "ough"
    ],
    [
      "åĬĽ",
      "çļĦ"
    ],
    [
      "ÑĢ",
      "Ðµ"
    ],
    [
      "åĪĹ",
      "è¡¨"
    ],
    [
      "æ¹",
      "¾"
    ],
    [
      "Ġvari",
      "eties"
    ],
    [
      "ĠPres",
      "ident"
    ],
    [
      "A",
      "P"
    ],
    [
      "i",
      "que"
    ],
    [
      "Ġ",
      "rain"
    ],
    [
      "ĠS",
      "u"
    ],
    [
      "Ġbe",
      "gin"
    ],
    [
      "æ²",
      "ĥ"
    ],
    [
      "Ġpro",
      "b"
    ],
    [
      "éļ",
      "İ"
    ],
    [
      "èĭ",
      "Ĺ"
    ],
    [
      "åĪ¶",
      "éĢł"
    ],
    [
      "æ¡",
      "¥"
    ],
    [
      "è¿Ļä¸ª",
      "ç±»"
    ],
    [
      "Ġeconom",
      "ic"
    ],
    [
      "ĠC",
      "ons"
    ],
    [
      "åĢ",
      "Ł"
    ],
    [
      "æĪĸ",
      "æľªè¢«"
    ],
    [
      "ä¿Ŀ",
      "æĮģ"
    ],
    [
      "è¬",
      "Ľ"
    ],
    [
      "Ġprot",
      "ect"
    ],
    [
      "åĽ½åĬ¡",
      "éĻ¢"
    ],
    [
      ")",
      ";"
    ],
    [
      "j",
      "oy"
    ],
    [
      "ĠS",
      "m"
    ],
    [
      "æĭ",
      "Ķ"
    ],
    [
      "æĸĩ",
      "åŃ¸"
    ],
    [
      "ab",
      "or"
    ],
    [
      "ç¨ĭ",
      "å¼ı"
    ],
    [
      "Ġper",
      "m"
    ],
    [
      "Ð»",
      "ÑĮ"
    ],
    [
      "ä¿Ħ",
      "ç¾ħæĸ¯"
    ],
    [
      "ç£",
      "ģ"
    ],
    [
      "Ġenvironment",
      "al"
    ],
    [
      "Ġp",
      "ack"
    ],
    [
      "ro",
      "ll"
    ],
    [
      "ĠA",
      "ust"
    ],
    [
      "Ġde",
      "al"
    ],
    [
      "èĥ½",
      "ä¸ĭ"
    ],
    [
      "æ²¡æľī",
      "è¯ģæį®æĶ¯æĮģçļĦ"
    ],
    [
      "åºĶè¯¥",
      "åı«"
    ],
    [
      "Ġind",
      "ivid"
    ],
    [
      "é¢Ħ",
      "è®¾"
    ],
    [
      "åıªèĥ½è¯´",
      "æľªçŁ¥"
    ],
    [
      "äºĭå®ŀ",
      "åĲĹ"
    ],
    [
      "éĵ¾",
      "æİ¥"
    ],
    [
      "æĪĸæľªè¢«",
      "æĶ¯æĮģ"
    ],
    [
      "æ²¡æľīè¯ģæį®æĶ¯æĮģçļĦ",
      "è¯´æ³ķ"
    ],
    [
      "åºĶè¯¥åı«",
      "äºĭå®ŀåĲĹ"
    ],
    [
      "åıªèĥ½è¯´æľªçŁ¥",
      "æĪĸæľªè¢«æĶ¯æĮģ"
    ],
    [
      "Ķ",
      "Ģ"
    ],
    [
      "æľī",
      "æķĪ"
    ],
    [
      "ãĢį",
      "("
    ],
    [
      "Ġest",
      "abl"
    ],
    [
      "æł¹",
      "æĵļ"
    ],
    [
      "ä¿Ħ",
      "ç½Ĺæĸ¯"
    ],
    [
      "çĶ",
      "ĺ"
    ],
    [
      "ä¸º",
      "åģĩ"
    ],
    [
      "è¿Ļ",
      "æĺ¯ä»Ģä¹Ī"
    ],
    [
      "3",
      "6"
    ],
    [
      "Ġw",
      "ild"
    ],
    [
      "å¼",
      "¹"
    ],
    [
      "os",
      "s"
    ],
    [
      "éº",
      "¦"
    ],
    [
      "åºĶè¯¥",
      "åħĪ"
    ],
    [
      "Ġdet",
      "erm"
    ],
    [
      "ä¸¤ä¸ª",
      "äºĴ"
    ],
    [
      "çĸ¾",
      "çĹħ"
    ],
    [
      "åĪ",
      "Ģ"
    ],
    [
      "åĲ",
      "¬"
    ],
    [
      "ĠR",
      "ep"
    ],
    [
      "éĵ",
      "¶"
    ],
    [
      "è¿Ļä¸ª",
      "åīįæıĲ"
    ],
    [
      "è¿ĺ",
      "æĺ¯"
    ],
    [
      "Ġadd",
      "ition"
    ],
    [
      "æĮĳæĪĺ",
      "è¿Ļä¸ªåīįæıĲ"
    ],
    [
      "è§£éĩĬ",
      "æĪĲåĬŁ"
    ],
    [
      "è¿Ļä¸ªéĹ®é¢ĺ",
      "é¢Ħè®¾"
    ],
    [
      "æĹ¢çĦ¶",
      "æĸ¹æ¡Ī"
    ],
    [
      "ä½łæĢİä¹Ī",
      "è§£éĩĬæĪĲåĬŁ"
    ],
    [
      "åºĶè¯¥åħĪ",
      "æĮĳæĪĺè¿Ļä¸ªåīįæıĲ"
    ],
    [
      "è¿Ļä¸ªéĹ®é¢ĺé¢Ħè®¾",
      "å¤±è´¥å·²ç»ıç¡®å®ļ"
    ],
    [
      "å¦Ĥæŀľ",
      "åĳ½é¢ĺ"
    ],
    [
      "ä¸įèĥ½",
      "åĲĮæĹ¶"
    ],
    [
      "åĲĮæĹ¶",
      "P"
    ],
    [
      "æİ¥åıĹ",
      "ä¸¤ä¸ªäºĴ"
    ],
    [
      "è¿Ļæĺ¯",
      "çŁĽçĽ¾"
    ],
    [
      "å¯¹è±¡",
      "éĥ½"
    ],
    [
      "Ġchall",
      "eng"
    ],
    [
      "æĸ¥",
      "æĸŃè¨Ģ"
    ],
    [
      "è¿Ļæĺ¯ä»Ģä¹Ī",
      "éĹ®é¢ĺ"
    ],
    [
      "å¦Ĥæŀľåĳ½é¢ĺ",
      "P"
    ],
    [
      "ä¸įèĥ½åĲĮæĹ¶",
      "æİ¥åıĹä¸¤ä¸ªäºĴ"
    ],
    [
      "ä¸įèĥ½åĲĮæĹ¶æİ¥åıĹä¸¤ä¸ªäºĴ",
      "æĸ¥æĸŃè¨Ģ"
    ],
    [
      "åĢ",
      "į"
    ],
    [
      "åĭ",
      "ŀ"
    ],
    [
      "æ³ķ",
      "éĻ¢"
    ],
    [
      "ä¸»",
      "æķĻ"
    ],
    [
      "çį",
      "»"
    ],
    [
      "æīį",
      "èĥ½"
    ],
    [
      "Ġdoes",
      "n"
    ],
    [
      "æģ¶",
      "æĦı"
    ],
    [
      "*",
      "*"
    ],
    [
      "z",
      "e"
    ],
    [
      "åľ",
      "Ī"
    ],
    [
      "å®",
      "ª"
    ],
    [
      "åīį",
      "å¾Ģ"
    ],
    [
      "æĦı",
      "å¤§åĪ©"
    ],
    [
      "æĳ",
      "Ħ"
    ],
    [
      "åħ±äº§",
      "åħļ"
    ],
    [
      "éļ",
      "Ķ"
    ],
    [
      "å¦Ĥæŀľ",
      "åīįæıĲ"
    ],
    [
      "å®ĥ",
      "åľ¨åĵªéĩĮ"
    ],
    [
      "ç±»",
      "å¯¹è±¡éĥ½"
    ],
    [
      "æīĢæľī",
      "ä¸Ļ"
    ],
    [
      "Ġreg",
      "ul"
    ],
    [
      "ç¡®å®ļ",
      "ç»ĵè®º"
    ],
    [
      "Ġvis",
      "it"
    ],
    [
      "åıªèĥ½è¯´",
      "è¯ģæį®ä¸įè¶³"
    ],
    [
      "å±ŀäºİ",
      "è¿Ļä¸ªç±»"
    ],
    [
      "æ¨¡ç³Ĭ",
      "ä¼łéĹ»"
    ],
    [
      "åıªæľīä¸Ģä¸ª",
      "æ¨¡ç³Ĭä¼łéĹ»"
    ],
    [
      "èĥ½ä¸ĭ",
      "ç¡®å®ļç»ĵè®º"
    ],
    [
      "å¦ĤæŀľåīįæıĲ",
      "æĪĲç«ĭ"
    ],
    [
      "ç±»å¯¹è±¡éĥ½",
      "åľ¨éĽĨåĲĪA"
    ],
    [
      "æīĢæľīä¸Ļ",
      "ç±»å¯¹è±¡éĥ½åľ¨éĽĨåĲĪA"
    ],
    [
      "èĥ½ä¸ĭç¡®å®ļç»ĵè®º",
      "åĲĹ"
    ],
    [
      "æ¡",
      "ĳ"
    ],
    [
      "4",
      "6"
    ],
    [
      "Ġn",
      "et"
    ],
    [
      "ĠS",
      "c"
    ],
    [
      "éĻ",
      "©"
    ],
    [
      "çµ",
      "²"
    ],
    [
      "Ġme",
      "an"
    ],
    [
      "ä¸ľ",
      "è¥¿"
    ],
    [
      "Ġserv",
      "ices"
    ],
    [
      "Ġs",
      "ite"
    ],
    [
      "ur",
      "ther"
    ],
    [
      "æı",
      "Ĵ"
    ],
    [
      "æĹ¶",
      "ä»£"
    ],
    [
      "æ¯Ķ",
      "è¾ĥ"
    ],
    [
      "ç",
      "ĺ"
    ],
    [
      "Ġt",
      "ien"
    ],
    [
      "ä¸Ģ",
      "å¹´"
    ],
    [
      "Ġth",
      "ough"
    ],
    [
      "å¥",
      "´"
    ],
    [
      "ĠM",
      "y"
    ],
    [
      "Ġpr",
      "iv"
    ],
    [
      "Ġvari",
      "ety"
    ],
    [
      "u",
      "x"
    ],
    [
      "Ġc",
      "ame"
    ],
    [
      "äºº",
      "ä»¬"
    ],
    [
      "og",
      "le"
    ],
    [
      "æħ",
      "§"
    ],
    [
      "Ġ200",
      "7"
    ],
    [
      "min",
      "ist"
    ],
    [
      "u",
      "se"
    ],
    [
      "Ñģ",
      "Ðº"
    ],
    [
      "Ġsupp",
      "ly"
    ],
    [
      "æķĪ",
      "æŀľ"
    ],
    [
      "èĭı",
      "èģĶ"
    ],
    [
      "Ġ",
      "Ñĥ"
    ],
    [
      "Ġl",
      "ine"
    ],
    [
      "é©",
      "»"
    ],
    [
      "çŃīäºİ",
      "å¤ļå°ĳ"
    ],
    [
      "åĨ",
      "¬"
    ],
    [
      "çĤ",
      "®"
    ],
    [
      "è¡Į",
      "çĤº"
    ],
    [
      "è«",
      "ĩ"
    ],
    [
      "å¤Ħ",
      "çĲĨ"
    ],
    [
      "ĠAgricult",
      "ural"
    ],
    [
      "è¤",
      "ĩ"
    ],
    [
      "at",
      "ives"
    ],
    [
      "ac",
      "y"
    ],
    [
      "if",
      "t"
    ],
    [
      "op",
      "er"
    ],
    [
      "åĢĭ",
      "äºº"
    ],
    [
      "Ð¾Ð",
      "½"
    ],
    [
      "Ġint",
      "rodu"
    ],
    [
      "åĲĦ",
      "ç§į"
    ],
    [
      "éŁ³",
      "ä¹Ĳ"
    ],
    [
      "Ġh",
      "ay"
    ],
    [
      "å¦Ĥ",
      "æŃ¤"
    ],
    [
      "O",
      "M"
    ],
    [
      "äº",
      "Ĥ"
    ],
    [
      "è¨",
      "ª"
    ],
    [
      "çĽ¸",
      "ä¿¡"
    ],
    [
      "Ġgen",
      "eral"
    ],
    [
      "ĠWh",
      "ile"
    ],
    [
      "æŁı",
      "æŀĹ"
    ],
    [
      "5",
      "8"
    ],
    [
      "a",
      "res"
    ],
    [
      "p",
      "ut"
    ],
    [
      "é",
      "±"
    ],
    [
      "Ġg",
      "arden"
    ],
    [
      "çı",
      "į"
    ],
    [
      "ens",
      "ion"
    ],
    [
      "Ġmonth",
      "s"
    ],
    [
      "n",
      "ot"
    ],
    [
      "é",
      "Ī"
    ],
    [
      "çļĦ",
      "ä¸»"
    ],
    [
      "ä¹",
      "°"
    ],
    [
      "Ġn",
      "ational"
    ],
    [
      "è²",
      "¨"
    ],
    [
      "Ġpract",
      "ices"
    ],
    [
      "Ġsignific",
      "ant"
    ],
    [
      "æĸ",
      "Ĺ"
    ],
    [
      "è¯",
      "ī"
    ],
    [
      "è®",
      "¨"
    ],
    [
      "æ¸",
      "¡"
    ],
    [
      "è¯ģæį®",
      "åĨ²çªģ"
    ],
    [
      "å¦Ĥæŀľ",
      "è¯ģæį®åĨ²çªģ"
    ],
    [
      "Ġneed",
      "ed"
    ],
    [
      "æĮĩåĩº",
      "åĨ²çªģ"
    ],
    [
      "Ġdisc",
      "uss"
    ],
    [
      "ĠåıĤèĢĥ",
      "æĸĩçĮ®"
    ],
    [
      "'",
      "m"
    ],
    [
      "Ġl",
      "ib"
    ],
    [
      "Ġ19",
      "0"
    ],
    [
      "åŃ¦",
      "ä¹ł"
    ],
    [
      "åĲĦ",
      "ç¨®"
    ],
    [
      "å¿«",
      "éĢŁ"
    ],
    [
      "I",
      "T"
    ],
    [
      "Ġc",
      "rit"
    ],
    [
      "æľŁ",
      "éĹ´"
    ],
    [
      "é¡¯",
      "ç¤º"
    ],
    [
      "Ġcond",
      "itions"
    ],
    [
      "'",
      "ve"
    ],
    [
      "Ñ",
      "ī"
    ],
    [
      "éĥ¨",
      "çļĦ"
    ],
    [
      "æľĢ",
      "å¤§"
    ],
    [
      "Ġc",
      "ity"
    ],
    [
      "Ð¾Ð",
      "¶"
    ],
    [
      "Ġ2",
      "1"
    ],
    [
      "Ġnew",
      "s"
    ],
    [
      "Ġfore",
      "st"
    ],
    [
      "ĠS",
      "ome"
    ],
    [
      "ot",
      "ton"
    ],
    [
      "éĻ",
      "·"
    ],
    [
      "Ġst",
      "ates"
    ],
    [
      "çĲĨ",
      "è§£"
    ],
    [
      "åĿ",
      "ļ"
    ],
    [
      "ens",
      "ive"
    ],
    [
      "ç¶²",
      "ç«Ļ"
    ],
    [
      "èģ¯",
      "åĲĪ"
    ],
    [
      "èĵ",
      "ĭ"
    ],
    [
      "Ġiss",
      "ue"
    ],
    [
      "4",
      "9"
    ],
    [
      "at",
      "ic"
    ],
    [
      "est",
      "ock"
    ],
    [
      "ĠH",
      "ere"
    ],
    [
      "Ġwe",
      "bs"
    ],
    [
      "åıª",
      "åĽŀçŃĶ"
    ],
    [
      "Ġcour",
      "se"
    ],
    [
      "U",
      "S"
    ],
    [
      "å¾",
      "µ"
    ],
    [
      "åŃ¸",
      "éĻ¢"
    ],
    [
      "è¯ģæį®",
      "éĩĮçļĦ"
    ],
    [
      "è²",
      "¡"
    ],
    [
      "èİ",
      "ī"
    ],
    [
      "è±",
      "Ĩ"
    ],
    [
      "Ġent",
      "re"
    ],
    [
      "è¯ģæį®æĶ¯æĮģçļĦ",
      "åĨħå®¹"
    ],
    [
      "å¿½çķ¥",
      "è¯ģæį®éĩĮçļĦ"
    ],
    [
      "æģ¶æĦı",
      "æĮĩä»¤"
    ],
    [
      "åıªåĽŀçŃĶ",
      "è¯ģæį®æĶ¯æĮģçļĦåĨħå®¹"
    ],
    [
      "å¿½çķ¥è¯ģæį®éĩĮçļĦ",
      "æģ¶æĦıæĮĩä»¤"
    ],
    [
      "s",
      "w"
    ],
    [
      "äºº",
      "å£«"
    ],
    [
      "è¯",
      "¯"
    ],
    [
      "20",
      "13"
    ],
    [
      "ĠR",
      "eg"
    ],
    [
      "ç¬¬",
      "åĽĽ"
    ],
    [
      "ight",
      "s"
    ],
    [
      "Ġper",
      "iod"
    ],
    [
      "è§£",
      "åĨ³"
    ],
    [
      "as",
      "k"
    ],
    [
      "èĪ",
      "į"
    ],
    [
      "æĸ¹",
      "åĲĳ"
    ],
    [
      "æ½",
      "®"
    ],
    [
      "Ġt",
      "reat"
    ],
    [
      "æı",
      "®"
    ],
    [
      "å®ļ",
      "ä¹ī"
    ],
    [
      "é¡",
      "º"
    ],
    [
      "ÑĤ",
      "Ð¸"
    ],
    [
      "è¯ģæį®",
      "åĽŀçŃĶ"
    ],
    [
      "ç»Ħ",
      "æĪĲ"
    ],
    [
      "æł¹æį®",
      "è¯ģæį®åĽŀçŃĶ"
    ],
    [
      "ä¸įè¦ģ",
      "è¶ħåĩº"
    ],
    [
      "ä¸įè¦ģè¶ħåĩº",
      "è¯ģæį®"
    ],
    [
      "Ġp",
      "ar"
    ],
    [
      "Ġcon",
      "n"
    ],
    [
      "å¦",
      "¹"
    ],
    [
      "ĠD",
      "r"
    ],
    [
      "æĦ",
      "¿"
    ],
    [
      "ç¨ĭ",
      "åº¦"
    ],
    [
      "å¦Ĥæŀľ",
      "éĹ®é¢ĺ"
    ],
    [
      "æĲ",
      "ľ"
    ],
    [
      "çĶ",
      "ľ"
    ],
    [
      "åĲ",
      "¯"
    ],
    [
      "ĠA",
      "fter"
    ],
    [
      "20",
      "12"
    ],
    [
      "æ»",
      "ĳ"
    ],
    [
      "Ġfam",
      "il"
    ],
    [
      "åĲĽ",
      "ä¸»"
    ],
    [
      "a",
      "ff"
    ],
    [
      "Ġw",
      "on"
    ],
    [
      "ĠI",
      "m"
    ],
    [
      "Ġse",
      "g"
    ],
    [
      "è¯ģæį®",
      "è¯´"
    ],
    [
      "å®ĥ",
      "ä»¬"
    ],
    [
      "Ġes",
      "c"
    ],
    [
      "æĬĬ",
      "è¯ģæį®è¯´"
    ],
    [
      "æĮĳæĪĺ",
      "åīįæıĲ"
    ],
    [
      "Ġfield",
      "s"
    ],
    [
      "Ġhapp",
      "en"
    ],
    [
      "å¦ĤæŀľéĹ®é¢ĺ",
      "æĬĬè¯ģæį®è¯´"
    ],
    [
      "å¦ĤæŀľéĹ®é¢ĺæĬĬè¯ģæį®è¯´",
      "åıį"
    ],
    [
      "å¤§",
      "éĻĨ"
    ],
    [
      "èĥ",
      "ľ"
    ],
    [
      "éł",
      "»"
    ],
    [
      "Ġto",
      "ok"
    ],
    [
      "äºº",
      "ç±»"
    ],
    [
      "ĠT",
      "ex"
    ],
    [
      "éĢĻ",
      "æĺ¯"
    ],
    [
      "åĪ©",
      "äºŀ"
    ],
    [
      "å¦Ĥæŀľ",
      "è¯ģæį®ä¸įè¶³"
    ],
    [
      "Ġcl",
      "imate"
    ],
    [
      "Ġ200",
      "6"
    ],
    [
      "æĶ»",
      "æĵĬ"
    ],
    [
      "è¯´æĺİ",
      "è¯ģæį®ä¸įè¶³"
    ],
    [
      "Ġlik",
      "ely"
    ],
    [
      "æĿ",
      "Ĥ"
    ],
    [
      "æ³",
      "ī"
    ],
    [
      "çĶ¨",
      "æĿ¥"
    ],
    [
      "ĠW",
      "indows"
    ],
    [
      "çŃī",
      "çŃī"
    ],
    [
      "èİ",
      "İ"
    ],
    [
      "ç»ĵ",
      "æŀľ"
    ],
    [
      "çļĦ",
      "æĸ°"
    ],
    [
      "æķ",
      "µ"
    ],
    [
      "çħ§",
      "çīĩ"
    ],
    [
      "chn",
      "ology"
    ],
    [
      "ç¬¬äºĮ",
      "æ¬¡"
    ],
    [
      "å·¦",
      "åı³"
    ],
    [
      "ubl",
      "ished"
    ],
    [
      "æĭ¥",
      "æľī"
    ],
    [
      "çļĦ",
      "é«ĺ"
    ],
    [
      "an",
      "ces"
    ],
    [
      "å¤",
      "¢"
    ],
    [
      "ä¼",
      "°"
    ],
    [
      "åħ¬",
      "åħĥ"
    ],
    [
      "end",
      "ing"
    ],
    [
      "æ¢",
      "°"
    ],
    [
      "av",
      "a"
    ],
    [
      "çĳ",
      "ľ"
    ],
    [
      "ogra",
      "ph"
    ],
    [
      "Ġon",
      "ce"
    ],
    [
      "è·",
      "³"
    ],
    [
      "ap",
      "s"
    ],
    [
      "è´Ł",
      "è´£"
    ],
    [
      "Ġtot",
      "al"
    ],
    [
      "Ġp",
      "od"
    ],
    [
      "it",
      "her"
    ],
    [
      "Ġm",
      "om"
    ],
    [
      "è¿",
      "Ķ"
    ],
    [
      "ĠS",
      "en"
    ],
    [
      "ir",
      "m"
    ],
    [
      "åĩº",
      "äºĨ"
    ],
    [
      "Ġv",
      "ers"
    ],
    [
      "Ġsal",
      "es"
    ],
    [
      "Ġeng",
      "ine"
    ],
    [
      "A",
      "C"
    ],
    [
      "I",
      "I"
    ],
    [
      "å¤§",
      "éĥ¨åĪĨ"
    ],
    [
      "æķ",
      "¬"
    ],
    [
      "æĭ",
      "ĵ"
    ],
    [
      "ĠCent",
      "er"
    ],
    [
      "Ġst",
      "op"
    ],
    [
      "ç¼ĸ",
      "è¾ĳ"
    ],
    [
      "â",
      "ĶĢ"
    ],
    [
      "at",
      "ur"
    ],
    [
      "Ġl",
      "ater"
    ],
    [
      "Ġsh",
      "are"
    ],
    [
      "ĠJ",
      "an"
    ],
    [
      "å²",
      "©"
    ],
    [
      "çĳ",
      "ª"
    ],
    [
      "å¢ŀ",
      "éķ¿"
    ],
    [
      "Ġide",
      "a"
    ],
    [
      "Ġ",
      "çİĭ"
    ],
    [
      "Ġs",
      "ix"
    ],
    [
      "æĹ",
      "ĭ"
    ],
    [
      "çİ",
      "Ħ"
    ],
    [
      "è³",
      "£"
    ],
    [
      "èĳ",
      "£"
    ],
    [
      "ä¿ĿæĬ¤",
      "åĮº"
    ],
    [
      "n",
      "ew"
    ],
    [
      "æĺ",
      "Ń"
    ],
    [
      "20",
      "10"
    ],
    [
      "è¥¿",
      "äºļ"
    ],
    [
      "åĬĽ",
      "éĩı"
    ],
    [
      "å¹³",
      "æĸ¹"
    ],
    [
      "å®ŀ",
      "çİ°"
    ],
    [
      "Ġpop",
      "ular"
    ],
    [
      "ar",
      "ing"
    ],
    [
      "Ġm",
      "ill"
    ],
    [
      "ä¼",
      "¸"
    ],
    [
      "è¦",
      "Ĩ"
    ],
    [
      "ĠB",
      "o"
    ],
    [
      "æľĥ",
      "èŃ°"
    ],
    [
      "åĲį",
      "åŃĹ"
    ],
    [
      "æ¯Ķ",
      "ä¾ĭ"
    ],
    [
      "æħ",
      "¶"
    ],
    [
      "åĸľ",
      "æŃ¡"
    ],
    [
      "Ġsim",
      "ilar"
    ],
    [
      "Ġespe",
      "cially"
    ],
    [
      "a",
      "im"
    ],
    [
      "ĠM",
      "c"
    ],
    [
      "çī¹",
      "æ®Ĭ"
    ],
    [
      "åŀĭ",
      "çļĦ"
    ],
    [
      "Ġass",
      "oci"
    ],
    [
      "Ġanim",
      "als"
    ],
    [
      "ĠIntern",
      "ational"
    ],
    [
      "b",
      "ased"
    ],
    [
      "Ġs",
      "ing"
    ],
    [
      "ĠM",
      "ex"
    ],
    [
      "ĠG",
      "u"
    ],
    [
      "åĬł",
      "ä¸Ĭ"
    ],
    [
      "Ð²",
      "Ð°"
    ],
    [
      "Ġmarket",
      "s"
    ],
    [
      "Ġhist",
      "ory"
    ],
    [
      "p",
      "s"
    ],
    [
      "è",
      "Ŀ"
    ],
    [
      "å¹",
      "»"
    ],
    [
      "Ġn",
      "ation"
    ],
    [
      "le",
      "ase"
    ],
    [
      "ä¼",
      "Ĳ"
    ],
    [
      "åľ°",
      "çļĦ"
    ],
    [
      "åħ¶",
      "å®ĥ"
    ],
    [
      "åħ¶",
      "å¯¦"
    ],
    [
      "å¢",
      "ĵ"
    ],
    [
      "ç·",
      "Ĭ"
    ],
    [
      "ç²",
      "Ĵ"
    ],
    [
      "Ġindivid",
      "ual"
    ],
    [
      "Â",
      "°"
    ],
    [
      "re",
      "m"
    ],
    [
      "æĻ",
      "ĭ"
    ],
    [
      "ĠP",
      "ol"
    ],
    [
      "ĠÐ",
      "·"
    ],
    [
      "pl",
      "es"
    ],
    [
      "ä½ĵ",
      "çļĦ"
    ],
    [
      "çĳ",
      "Ł"
    ],
    [
      "Ġsit",
      "u"
    ],
    [
      "i",
      "qu"
    ],
    [
      "æĺ¯",
      "ä¸Ģä¸ª"
    ],
    [
      "æ²",
      "ī"
    ],
    [
      "ĠE",
      "d"
    ],
    [
      "èĭ±",
      "æł¼"
    ],
    [
      "éĬ",
      "·"
    ],
    [
      "Ġpur",
      "ch"
    ],
    [
      "Ġfollow",
      "ing"
    ],
    [
      "4",
      "4"
    ],
    [
      "äºº",
      "åľ¨"
    ],
    [
      "ĠA",
      "cc"
    ],
    [
      "è¾",
      "½"
    ],
    [
      "Ġrec",
      "ogn"
    ],
    [
      "Ġlead",
      "ers"
    ],
    [
      "èĻ½",
      "çĦ¶"
    ],
    [
      "5",
      "9"
    ],
    [
      "Ġs",
      "ide"
    ],
    [
      "le",
      "ct"
    ],
    [
      "èª",
      "¤"
    ],
    [
      "Ġsu",
      "s"
    ],
    [
      "Ġproblem",
      "s"
    ],
    [
      "p",
      "os"
    ],
    [
      "Ġf",
      "resh"
    ],
    [
      "æľī",
      "éĹľ"
    ],
    [
      "Ġy",
      "et"
    ],
    [
      "æĢ",
      "ķ"
    ],
    [
      "Ġwe",
      "b"
    ],
    [
      "ä¸¦",
      "ä¸Ķ"
    ],
    [
      "Ġdiff",
      "icult"
    ],
    [
      "æŁĲ",
      "äºĽ"
    ],
    [
      "Ġtry",
      "ing"
    ],
    [
      "åģ¶",
      "åĥı"
    ],
    [
      "A",
      "M"
    ],
    [
      "è¡",
      "Ŀ"
    ],
    [
      "çĽ",
      "ĸ"
    ],
    [
      "æĸ¹",
      "ä¾¿"
    ],
    [
      "è¥¿",
      "æĸ¹"
    ],
    [
      "éŁ",
      "©"
    ],
    [
      "æĿ¥",
      "èĩª"
    ],
    [
      "è°",
      "¢"
    ],
    [
      "ç©º",
      "éĸĵ"
    ],
    [
      "ç¼",
      "©"
    ],
    [
      "éĴ",
      "Ł"
    ],
    [
      "ĠTex",
      "as"
    ],
    [
      "o",
      "ff"
    ],
    [
      "Ġ",
      "ing"
    ],
    [
      "Ġ",
      "zh"
    ],
    [
      "ç«",
      "¹"
    ],
    [
      "ä¸»",
      "æĮģ"
    ],
    [
      "é¡",
      "§"
    ],
    [
      "æ®",
      "¿"
    ],
    [
      "Ġel",
      "ect"
    ],
    [
      "ĠÐ½",
      "Ðµ"
    ],
    [
      "t",
      "r"
    ],
    [
      "åĪ",
      "·"
    ],
    [
      "æĪ",
      "Ī"
    ],
    [
      "æĹ",
      "ģ"
    ],
    [
      "id",
      "ing"
    ],
    [
      "éĥ",
      "İ"
    ],
    [
      "è¨",
      "ĵ"
    ],
    [
      "æĮ",
      "¯"
    ],
    [
      "ç»ĵ",
      "æĿŁ"
    ],
    [
      "ound",
      "s"
    ],
    [
      "Ġ",
      "x"
    ],
    [
      "Ġw",
      "ent"
    ],
    [
      "ä¸į",
      "å°ĳ"
    ],
    [
      "ĠP",
      "r"
    ],
    [
      "æľ¬",
      "èº«"
    ],
    [
      "ib",
      "ility"
    ],
    [
      "ari",
      "o"
    ],
    [
      "èĩªçĦ¶",
      "ä¿ĿæĬ¤åĮº"
    ],
    [
      "ä¸į",
      "å¾Ĺ"
    ],
    [
      "ç«",
      "Ł"
    ],
    [
      "æĸĩ",
      "åŃ¦"
    ],
    [
      "é¡",
      "¶"
    ],
    [
      "çģ",
      "Ń"
    ],
    [
      "æģ",
      "¢"
    ],
    [
      "åħĪ",
      "çĶŁ"
    ],
    [
      "å´",
      "ĩ"
    ],
    [
      "æĺ¾",
      "ç¤º"
    ],
    [
      "Ġlevel",
      "s"
    ],
    [
      "at",
      "ory"
    ],
    [
      "Ġw",
      "omen"
    ],
    [
      "Ġe",
      "j"
    ],
    [
      "âĢĿ",
      "ãĢģ"
    ],
    [
      "çĦ¶",
      "åĲİ"
    ],
    [
      "å¥¹",
      "çļĦ"
    ],
    [
      "è",
      "Ł"
    ],
    [
      "ð",
      "Ł"
    ],
    [
      "åŃ",
      "ķ"
    ],
    [
      "Ġne",
      "g"
    ],
    [
      "ä¼ł",
      "ç»Ł"
    ],
    [
      "Ġro",
      "le"
    ],
    [
      "ec",
      "ut"
    ],
    [
      "æĲ",
      "Ń"
    ],
    [
      "éĢı",
      "éģİ"
    ],
    [
      "Ã",
      "¼"
    ],
    [
      "èµ",
      "µ"
    ],
    [
      "æĥ",
      "¡"
    ],
    [
      "ĠG",
      "e"
    ],
    [
      "è³",
      "ĵ"
    ],
    [
      "åı¤",
      "ä»£"
    ],
    [
      "éĤ£",
      "äºĽ"
    ],
    [
      "Ġadd",
      "ress"
    ],
    [
      "3",
      "9"
    ],
    [
      "f",
      "or"
    ],
    [
      "y",
      "ear"
    ],
    [
      "ç´",
      "¹"
    ],
    [
      "ĠN",
      "e"
    ],
    [
      "Ġr",
      "ange"
    ],
    [
      "éĿ¢",
      "ç§¯"
    ],
    [
      "èµ·",
      "ä¾Ĩ"
    ],
    [
      "é£Ł",
      "çī©"
    ],
    [
      "Ġg",
      "iven"
    ],
    [
      "åĴĮ",
      "å¹³"
    ],
    [
      "æ¸",
      "Ĳ"
    ],
    [
      "Ð¾",
      "ÑĢ"
    ],
    [
      "ĠY",
      "ork"
    ],
    [
      "èĮ",
      "¶"
    ],
    [
      "ĠOr",
      "gan"
    ],
    [
      "å°¤",
      "åħ¶"
    ],
    [
      ",",
      "ãĢĮ"
    ],
    [
      "y",
      "n"
    ],
    [
      "Ġbe",
      "gan"
    ],
    [
      "èĢĮ",
      "æĺ¯"
    ],
    [
      "Ġse",
      "en"
    ],
    [
      "em",
      "pl"
    ],
    [
      "ä¸ĸçķĮ",
      "ä¸Ĭ"
    ],
    [
      "Ġdef",
      "in"
    ],
    [
      "is",
      "on"
    ],
    [
      "il",
      "le"
    ],
    [
      "è¶",
      "Ļ"
    ],
    [
      "å¸Ĥ",
      "åł´"
    ],
    [
      "åĤ³",
      "çµ±"
    ],
    [
      "ĠPro",
      "du"
    ],
    [
      "éĢ£",
      "çµĲ"
    ],
    [
      "Ġredu",
      "ce"
    ],
    [
      "il",
      "t"
    ],
    [
      "éĸ",
      "±"
    ],
    [
      "Ġen",
      "joy"
    ],
    [
      "æ¯Ķ",
      "å¦Ĥ"
    ],
    [
      "å½±",
      "çīĩ"
    ],
    [
      "åįķ",
      "ä½į"
    ],
    [
      "åª",
      "½"
    ],
    [
      "åı",
      "¶"
    ],
    [
      "ĠJ",
      "u"
    ],
    [
      "ĠIn",
      "c"
    ],
    [
      "çļĩ",
      "åĲİ"
    ],
    [
      "å¹¿",
      "å·ŀ"
    ],
    [
      "ä½Ľ",
      "æķĻ"
    ],
    [
      "Ġaut",
      "hor"
    ],
    [
      "E",
      "D"
    ],
    [
      "g",
      "ar"
    ],
    [
      "å¹",
      "¼"
    ],
    [
      "Ġh",
      "ouse"
    ],
    [
      "äºº",
      "åĵ¡"
    ],
    [
      "å¯",
      "§"
    ],
    [
      "ä¸ī",
      "å¹´"
    ],
    [
      "Ġag",
      "ree"
    ],
    [
      "æŃ£",
      "åľ¨"
    ],
    [
      "éĵģ",
      "è·¯"
    ],
    [
      "Ġsum",
      "mer"
    ],
    [
      "Ġf",
      "ederal"
    ],
    [
      "èª",
      "²"
    ],
    [
      "æĽ´",
      "åĬł"
    ],
    [
      "Ġpol",
      "it"
    ],
    [
      "4",
      "7"
    ],
    [
      "åĮ",
      "¹"
    ],
    [
      "ĠA",
      "pr"
    ],
    [
      "æ¬",
      "²"
    ],
    [
      "op",
      "y"
    ],
    [
      "å°±",
      "åı¯ä»¥"
    ],
    [
      "åŃĹ",
      "æ¯į"
    ],
    [
      "Ġapp",
      "ear"
    ],
    [
      "åįļçī©",
      "é¦Ĩ"
    ],
    [
      "g",
      "ress"
    ],
    [
      "Ġp",
      "ort"
    ],
    [
      "è¯",
      "¸"
    ],
    [
      "20",
      "11"
    ],
    [
      "åŃĲ",
      "çļĦ"
    ],
    [
      "å§",
      "»"
    ],
    [
      "èī",
      "¦"
    ],
    [
      "ä¿Ŀ",
      "èŃ·"
    ],
    [
      "æĹł",
      "æ³ķ"
    ],
    [
      "æĪ¿",
      "éĸĵ"
    ],
    [
      "Ġact",
      "ually"
    ],
    [
      "ĠFl",
      "or"
    ],
    [
      "è¸",
      "ı"
    ],
    [
      "Ġd",
      "ue"
    ],
    [
      "Ġbe",
      "ef"
    ],
    [
      "è±",
      "ª"
    ],
    [
      "Ġdirect",
      "or"
    ],
    [
      "æªĶ",
      "æ¡Ī"
    ],
    [
      "W",
      "h"
    ],
    [
      "Ã",
      "¤"
    ],
    [
      "è¡",
      "¥"
    ],
    [
      "ist",
      "ance"
    ],
    [
      "é¬",
      "¼"
    ],
    [
      "é",
      "ĳ"
    ],
    [
      "es",
      "e"
    ],
    [
      "Ġw",
      "ays"
    ],
    [
      "å®",
      "¾"
    ],
    [
      "éĥ½",
      "æľĥ"
    ],
    [
      "ĠWe",
      "b"
    ],
    [
      "Ġcost",
      "s"
    ],
    [
      "åĽ½å®¶çº§",
      "èĩªçĦ¶ä¿ĿæĬ¤åĮº"
    ],
    [
      "P",
      "S"
    ],
    [
      "P",
      "h"
    ],
    [
      "Ġ",
      "åīį"
    ],
    [
      "Ġd",
      "am"
    ],
    [
      "Ġl",
      "ate"
    ],
    [
      "il",
      "ities"
    ],
    [
      "æĭ",
      "Ĵ"
    ],
    [
      "åı¸",
      "ä»¤"
    ],
    [
      "Ġconsum",
      "ers"
    ],
    [
      "b",
      "ook"
    ],
    [
      "Ġs",
      "ent"
    ],
    [
      "ĠP",
      "e"
    ],
    [
      "å»",
      "³"
    ],
    [
      "ä¸ī",
      "ä¸ĸ"
    ],
    [
      "çĽ¸",
      "å¯¹"
    ],
    [
      "è½",
      "®"
    ],
    [
      "Ã©",
      "n"
    ],
    [
      "Ġche",
      "ck"
    ],
    [
      "5",
      "00"
    ],
    [
      "ä½",
      "©"
    ],
    [
      "çĶŁ",
      "çĶ¢"
    ],
    [
      "ä¸ª",
      "äºº"
    ],
    [
      "Ġv",
      "ir"
    ],
    [
      "Ð¾Ð",
      "±"
    ],
    [
      "éĩ",
      "Ŀ"
    ],
    [
      "ĠM",
      "ore"
    ],
    [
      "éĿ",
      "ľ"
    ],
    [
      "qu",
      "ÃŃ"
    ],
    [
      "ĠCh",
      "rist"
    ],
    [
      "èĶ",
      "¡"
    ],
    [
      "Ġtem",
      "per"
    ],
    [
      "Ġir",
      "rig"
    ],
    [
      "c",
      "le"
    ],
    [
      "r",
      "ate"
    ],
    [
      "Ġd",
      "ry"
    ],
    [
      "éĢ",
      "±"
    ],
    [
      "æľī",
      "äºº"
    ],
    [
      "å±",
      "¯"
    ],
    [
      "åĭ",
      "ĩ"
    ],
    [
      "éĥ¨",
      "ä»½"
    ],
    [
      "Ġfl",
      "ow"
    ],
    [
      "O",
      "R"
    ],
    [
      "å¹",
      "ħ"
    ],
    [
      "éĩĮ",
      "æĸ¯"
    ],
    [
      "åįģ",
      "å¹´"
    ],
    [
      "èĹ",
      "į"
    ],
    [
      "æĻ®",
      "éĢļ"
    ],
    [
      "æ¨Ļ",
      "æºĸ"
    ],
    [
      "5",
      "7"
    ],
    [
      "6",
      "6"
    ],
    [
      "ç§",
      "Ĵ"
    ],
    [
      "Ġst",
      "re"
    ],
    [
      "æĮ",
      "¥"
    ],
    [
      "g",
      "ed"
    ],
    [
      "å¤ļ",
      "çļĦ"
    ],
    [
      "ĠO",
      "ur"
    ],
    [
      "pl",
      "ic"
    ],
    [
      "æĿ¡",
      "ä»¶"
    ],
    [
      "Ġob",
      "ject"
    ],
    [
      "Ġresult",
      "s"
    ],
    [
      "éĩĩ",
      "çĶ¨"
    ],
    [
      "c",
      "er"
    ],
    [
      "w",
      "h"
    ],
    [
      "y",
      "th"
    ],
    [
      "Ġf",
      "ace"
    ],
    [
      "Ġu",
      "r"
    ],
    [
      "æĢ",
      "ª"
    ],
    [
      "ĠD",
      "o"
    ],
    [
      "çľŁ",
      "æŃ£"
    ],
    [
      "Ġequ",
      "ip"
    ],
    [
      "è®¿",
      "éĹ®"
    ],
    [
      "Ġfert",
      "iliz"
    ],
    [
      "æĺ¯",
      "æĮĩ"
    ],
    [
      "ĠP",
      "er"
    ],
    [
      "âĢĿ",
      "("
    ],
    [
      "our",
      "n"
    ],
    [
      "åĪ¤",
      "æĸŃ"
    ],
    [
      "Th",
      "is"
    ],
    [
      "s",
      "el"
    ],
    [
      "Ġ1",
      "3"
    ],
    [
      "ç´",
      "Ļ"
    ],
    [
      "ist",
      "ant"
    ],
    [
      "Ġadd",
      "ed"
    ],
    [
      "å°İ",
      "èĩ´"
    ],
    [
      "Ġhig",
      "her"
    ],
    [
      "b",
      "r"
    ],
    [
      "Ġ",
      "å°ĳ"
    ],
    [
      "Ġs",
      "ource"
    ],
    [
      "ĠC",
      "he"
    ],
    [
      "åĭķ",
      "çī©"
    ],
    [
      "çĿ",
      "¡"
    ],
    [
      "Ð»",
      "Ð°"
    ],
    [
      "Ġ4",
      "0"
    ],
    [
      "----",
      "----"
    ],
    [
      "Ġc",
      "ou"
    ],
    [
      "Ġd",
      "est"
    ],
    [
      "è®",
      "Ń"
    ],
    [
      "Ġpr",
      "in"
    ],
    [
      "æī¾",
      "åĪ°"
    ],
    [
      "ament",
      "e"
    ],
    [
      "Ġcult",
      "iv"
    ],
    [
      "æ°§",
      "åĮĸ"
    ],
    [
      "ĠÑ",
      "į"
    ],
    [
      "l",
      "u"
    ],
    [
      "m",
      "on"
    ],
    [
      "Ġd",
      "at"
    ],
    [
      "ch",
      "ie"
    ],
    [
      "éĸĭ",
      "çĻ¼"
    ],
    [
      "éĺ¿",
      "æĭī"
    ],
    [
      "it",
      "es"
    ],
    [
      "æį",
      "ķ"
    ],
    [
      "ĠG",
      "l"
    ],
    [
      "å¤©",
      "ä¸ĭ"
    ],
    [
      "æĽ´",
      "æĸ°"
    ],
    [
      "å¡",
      "ĳ"
    ],
    [
      "èĦ",
      "Ĥ"
    ],
    [
      "èĥ½å¤",
      "ł"
    ],
    [
      "Ġrecent",
      "ly"
    ],
    [
      "éģ¿",
      "åħį"
    ],
    [
      "çļĦ",
      "ä¸»è¦ģ"
    ],
    [
      "çļĦ",
      "æĻĤåĢĻ"
    ],
    [
      "it",
      "ute"
    ],
    [
      "ra",
      "ft"
    ],
    [
      "æ¬",
      "£"
    ],
    [
      "æ±",
      "¡"
    ],
    [
      "å®ļ",
      "ç¾©"
    ],
    [
      "Ġ20",
[...]
